{
  "version": "1.0",
  "truncation": null,
  "padding": null,
  "added_tokens": [],
  "normalizer": {
    "type": "Sequence",
    "normalizers": [
      {
        "type": "NFD"
      },
      {
        "type": "Lowercase"
      }
    ]
  },
  "pre_tokenizer": {
    "type": "Whitespace"
  },
  "post_processor": null,
  "decoder": null,
  "model": {
    "type": "WordPiece",
    "unk_token": "[UNK]",
    "continuing_subword_prefix": "##",
    "max_input_chars_per_word": 100,
    "vocab": {
      "!": 0,
      "\"": 1,
      "#": 2,
      "$": 3,
      "%": 4,
      "&": 5,
      "'": 6,
      "(": 7,
      ")": 8,
      "*": 9,
      "+": 10,
      ",": 11,
      "-": 12,
      ".": 13,
      "/": 14,
      "0": 15,
      "1": 16,
      "2": 17,
      "3": 18,
      "4": 19,
      "5": 20,
      "6": 21,
      "7": 22,
      "8": 23,
      "9": 24,
      ":": 25,
      ";": 26,
      "<": 27,
      "=": 28,
      ">": 29,
      "?": 30,
      "@": 31,
      "[": 32,
      "\\": 33,
      "]": 34,
      "^": 35,
      "_": 36,
      "`": 37,
      "a": 38,
      "b": 39,
      "c": 40,
      "d": 41,
      "e": 42,
      "f": 43,
      "g": 44,
      "h": 45,
      "i": 46,
      "j": 47,
      "k": 48,
      "l": 49,
      "m": 50,
      "n": 51,
      "o": 52,
      "p": 53,
      "q": 54,
      "r": 55,
      "s": 56,
      "t": 57,
      "u": 58,
      "v": 59,
      "w": 60,
      "x": 61,
      "y": 62,
      "z": 63,
      "{": 64,
      "|": 65,
      "}": 66,
      "~": 67,
      "£": 68,
      "¤": 69,
      "¥": 70,
      "§": 71,
      "©": 72,
      "«": 73,
      "¬": 74,
      "­": 75,
      "°": 76,
      "±": 77,
      "²": 78,
      "³": 79,
      "´": 80,
      "·": 81,
      "¹": 82,
      "º": 83,
      "»": 84,
      "×": 85,
      "÷": 86,
      "đ": 87,
      "˝": 88,
      "˟": 89,
      "̀": 90,
      "́": 91,
      "̂": 92,
      "̃": 93,
      "̄": 94,
      "̈": 95,
      "̉": 96,
      "̛": 97,
      "̣": 98,
      "̸": 99,
      "α": 100,
      "γ": 101,
      "δ": 102,
      "ε": 103,
      "η": 104,
      "ι": 105,
      "κ": 106,
      "μ": 107,
      "ν": 108,
      "π": 109,
      "ρ": 110,
      "τ": 111,
      "χ": 112,
      "ω": 113,
      "б": 114,
      "в": 115,
      "д": 116,
      "е": 117,
      "з": 118,
      "и": 119,
      "р": 120,
      "т": 121,
      "ы": 122,
      "ا": 123,
      "ب": 124,
      "ة": 125,
      "ت": 126,
      "ث": 127,
      "ج": 128,
      "ح": 129,
      "خ": 130,
      "د": 131,
      "ذ": 132,
      "ر": 133,
      "ز": 134,
      "س": 135,
      "ص": 136,
      "ض": 137,
      "ظ": 138,
      "ع": 139,
      "غ": 140,
      "ف": 141,
      "ق": 142,
      "ك": 143,
      "ل": 144,
      "م": 145,
      "ن": 146,
      "ه": 147,
      "و": 148,
      "ى": 149,
      "ي": 150,
      "ٔ": 151,
      "ग": 152,
      "त": 153,
      "य": 154,
      "र": 155,
      "स": 156,
      "ह": 157,
      "ा": 158,
      "्": 159,
      "ஐ": 160,
      "ಠ": 161,
      "๑": 162,
      "ᄀ": 163,
      "ᄁ": 164,
      "ᄂ": 165,
      "ᄃ": 166,
      "ᄄ": 167,
      "ᄅ": 168,
      "ᄆ": 169,
      "ᄇ": 170,
      "ᄈ": 171,
      "ᄉ": 172,
      "ᄊ": 173,
      "ᄋ": 174,
      "ᄌ": 175,
      "ᄍ": 176,
      "ᄎ": 177,
      "ᄏ": 178,
      "ᄐ": 179,
      "ᄑ": 180,
      "ᄒ": 181,
      "ᅠ": 182,
      "ᅡ": 183,
      "ᅢ": 184,
      "ᅣ": 185,
      "ᅤ": 186,
      "ᅥ": 187,
      "ᅦ": 188,
      "ᅧ": 189,
      "ᅨ": 190,
      "ᅩ": 191,
      "ᅪ": 192,
      "ᅫ": 193,
      "ᅬ": 194,
      "ᅭ": 195,
      "ᅮ": 196,
      "ᅯ": 197,
      "ᅰ": 198,
      "ᅱ": 199,
      "ᅲ": 200,
      "ᅳ": 201,
      "ᅴ": 202,
      "ᅵ": 203,
      "ᆞ": 204,
      "ᆢ": 205,
      "ᆨ": 206,
      "ᆩ": 207,
      "ᆪ": 208,
      "ᆫ": 209,
      "ᆬ": 210,
      "ᆭ": 211,
      "ᆮ": 212,
      "ᆯ": 213,
      "ᆰ": 214,
      "ᆱ": 215,
      "ᆲ": 216,
      "ᆳ": 217,
      "ᆴ": 218,
      "ᆵ": 219,
      "ᆶ": 220,
      "ᆷ": 221,
      "ᆸ": 222,
      "ᆹ": 223,
      "ᆺ": 224,
      "ᆻ": 225,
      "ᆼ": 226,
      "ᆽ": 227,
      "ᆾ": 228,
      "ᆿ": 229,
      "ᇀ": 230,
      "ᇁ": 231,
      "ᇂ": 232,
      "ᐧ": 233,
      "​": 234,
      "‍": 235,
      "‎": 236,
      "‏": 237,
      "–": 238,
      "—": 239,
      "―": 240,
      "‘": 241,
      "’": 242,
      "‚": 243,
      "‛": 244,
      "“": 245,
      "”": 246,
      "‟": 247,
      "•": 248,
      "․": 249,
      "‥": 250,
      "…": 251,
      "‧": 252,
      "‪": 253,
      "‬": 254,
      "′": 255,
      "″": 256,
      "‵": 257,
      "‶": 258,
      "※": 259,
      "⁠": 260,
      "⁴": 261,
      "⁵": 262,
      "⁾": 263,
      "₂": 264,
      "₩": 265,
      "℃": 266,
      "ℓ": 267,
      "ⅰ": 268,
      "ⅱ": 269,
      "ⅲ": 270,
      "ⅳ": 271,
      "ⅴ": 272,
      "ⅵ": 273,
      "ⅶ": 274,
      "ⅷ": 275,
      "←": 276,
      "↑": 277,
      "→": 278,
      "↓": 279,
      "↔": 280,
      "↕": 281,
      "⇒": 282,
      "⇦": 283,
      "⇨": 284,
      "∇": 285,
      "∎": 286,
      "∘": 287,
      "∙": 288,
      "∝": 289,
      "∣": 290,
      "∼": 291,
      "∽": 292,
      "≀": 293,
      "≒": 294,
      "≤": 295,
      "≥": 296,
      "≪": 297,
      "≫": 298,
      "⊙": 299,
      "⋅": 300,
      "⋯": 301,
      "⌜": 302,
      "⌟": 303,
      "①": 304,
      "②": 305,
      "③": 306,
      "④": 307,
      "⑤": 308,
      "⑥": 309,
      "⑦": 310,
      "⑧": 311,
      "⑨": 312,
      "⑩": 313,
      "⑪": 314,
      "⑫": 315,
      "⑬": 316,
      "⑭": 317,
      "⑮": 318,
      "⑯": 319,
      "⑰": 320,
      "⑱": 321,
      "⑲": 322,
      "⑳": 323,
      "⑴": 324,
      "⑵": 325,
      "⑶": 326,
      "⑷": 327,
      "⑸": 328,
      "⑹": 329,
      "⑺": 330,
      "⑻": 331,
      "⑼": 332,
      "⑽": 333,
      "⑾": 334,
      "⑿": 335,
      "⒈": 336,
      "⒉": 337,
      "⒊": 338,
      "⒋": 339,
      "⒌": 340,
      "ⓐ": 341,
      "ⓑ": 342,
      "ⓒ": 343,
      "ⓓ": 344,
      "ⓔ": 345,
      "ⓕ": 346,
      "ⓖ": 347,
      "ⓗ": 348,
      "ⓘ": 349,
      "⓵": 350,
      "⓶": 351,
      "⓷": 352,
      "⓸": 353,
      "⓹": 354,
      "⓺": 355,
      "─": 356,
      "━": 357,
      "┃": 358,
      "┎": 359,
      "┑": 360,
      "┓": 361,
      "┴": 362,
      "█": 363,
      "■": 364,
      "□": 365,
      "▢": 366,
      "▣": 367,
      "▩": 368,
      "▪": 369,
      "▲": 370,
      "△": 371,
      "▶": 372,
      "▷": 373,
      "▸": 374,
      "►": 375,
      "▼": 376,
      "▽": 377,
      "◀": 378,
      "◁": 379,
      "◆": 380,
      "◇": 381,
      "◈": 382,
      "◉": 383,
      "◊": 384,
      "○": 385,
      "◎": 386,
      "●": 387,
      "◐": 388,
      "◑": 389,
      "◦": 390,
      "◯": 391,
      "◾": 392,
      "★": 393,
      "☆": 394,
      "☎": 395,
      "☏": 396,
      "☐": 397,
      "☑": 398,
      "☛": 399,
      "☜": 400,
      "☞": 401,
      "☺": 402,
      "♀": 403,
      "♂": 404,
      "♠": 405,
      "♡": 406,
      "♣": 407,
      "♤": 408,
      "♥": 409,
      "♧": 410,
      "⚀": 411,
      "⚁": 412,
      "⚂": 413,
      "✔": 414,
      "❍": 415,
      "❏": 416,
      "❒": 417,
      "❗": 418,
      "❢": 419,
      "❤": 420,
      "❶": 421,
      "❷": 422,
      "❸": 423,
      "❹": 424,
      "❺": 425,
      "❻": 426,
      "❼": 427,
      "❽": 428,
      "❾": 429,
      "➀": 430,
      "➁": 431,
      "➂": 432,
      "➃": 433,
      "➔": 434,
      "➜": 435,
      "➡": 436,
      "⦁": 437,
      "⭐": 438,
      "⭕": 439,
      "、": 440,
      "。": 441,
      "〇": 442,
      "〈": 443,
      "〉": 444,
      "《": 445,
      "》": 446,
      "「": 447,
      "」": 448,
      "『": 449,
      "』": 450,
      "【": 451,
      "】": 452,
      "〔": 453,
      "〕": 454,
      "〮": 455,
      "あ": 456,
      "い": 457,
      "え": 458,
      "お": 459,
      "か": 460,
      "き": 461,
      "く": 462,
      "こ": 463,
      "さ": 464,
      "し": 465,
      "す": 466,
      "そ": 467,
      "た": 468,
      "ち": 469,
      "つ": 470,
      "て": 471,
      "と": 472,
      "な": 473,
      "に": 474,
      "の": 475,
      "は": 476,
      "へ": 477,
      "ま": 478,
      "み": 479,
      "む": 480,
      "め": 481,
      "も": 482,
      "や": 483,
      "ら": 484,
      "り": 485,
      "る": 486,
      "れ": 487,
      "わ": 488,
      "を": 489,
      "ん": 490,
      "゙": 491,
      "ア": 492,
      "イ": 493,
      "エ": 494,
      "キ": 495,
      "サ": 496,
      "シ": 497,
      "ト": 498,
      "ネ": 499,
      "ノ": 500,
      "ミ": 501,
      "ム": 502,
      "ャ": 503,
      "ユ": 504,
      "ラ": 505,
      "ル": 506,
      "ロ": 507,
      "ン": 508,
      "・": 509,
      "ー": 510,
      "ㄱ": 511,
      "ㄲ": 512,
      "ㄴ": 513,
      "ㄷ": 514,
      "ㄸ": 515,
      "ㄹ": 516,
      "ㄻ": 517,
      "ㅁ": 518,
      "ㅂ": 519,
      "ㅃ": 520,
      "ㅄ": 521,
      "ㅅ": 522,
      "ㅆ": 523,
      "ㅇ": 524,
      "ㅈ": 525,
      "ㅉ": 526,
      "ㅊ": 527,
      "ㅋ": 528,
      "ㅌ": 529,
      "ㅍ": 530,
      "ㅎ": 531,
      "ㅏ": 532,
      "ㅐ": 533,
      "ㅑ": 534,
      "ㅓ": 535,
      "ㅔ": 536,
      "ㅕ": 537,
      "ㅖ": 538,
      "ㅗ": 539,
      "ㅘ": 540,
      "ㅛ": 541,
      "ㅜ": 542,
      "ㅟ": 543,
      "ㅠ": 544,
      "ㅡ": 545,
      "ㅢ": 546,
      "ㅣ": 547,
      "ㆍ": 548,
      "㈔": 549,
      "㈜": 550,
      "㉑": 551,
      "㉒": 552,
      "㉓": 553,
      "㉔": 554,
      "㉙": 555,
      "㉠": 556,
      "㉡": 557,
      "㉮": 558,
      "㉯": 559,
      "㉰": 560,
      "㎍": 561,
      "㎎": 562,
      "㎏": 563,
      "㎖": 564,
      "㎛": 565,
      "㎜": 566,
      "㎝": 567,
      "㎞": 568,
      "㎡": 569,
      "㎢": 570,
      "㎥": 571,
      "㎸": 572,
      "㎾": 573,
      "㏊": 574,
      "一": 575,
      "丁": 576,
      "七": 577,
      "万": 578,
      "三": 579,
      "上": 580,
      "下": 581,
      "不": 582,
      "与": 583,
      "世": 584,
      "丙": 585,
      "东": 586,
      "中": 587,
      "主": 588,
      "乃": 589,
      "久": 590,
      "之": 591,
      "乎": 592,
      "乏": 593,
      "乐": 594,
      "乘": 595,
      "乙": 596,
      "九": 597,
      "乞": 598,
      "也": 599,
      "乱": 600,
      "乾": 601,
      "亂": 602,
      "事": 603,
      "二": 604,
      "于": 605,
      "五": 606,
      "井": 607,
      "亞": 608,
      "亡": 609,
      "交": 610,
      "京": 611,
      "人": 612,
      "仁": 613,
      "仄": 614,
      "今": 615,
      "介": 616,
      "仓": 617,
      "仕": 618,
      "他": 619,
      "付": 620,
      "仙": 621,
      "代": 622,
      "令": 623,
      "以": 624,
      "仮": 625,
      "件": 626,
      "任": 627,
      "企": 628,
      "伊": 629,
      "休": 630,
      "伯": 631,
      "伸": 632,
      "位": 633,
      "低": 634,
      "住": 635,
      "何": 636,
      "作": 637,
      "佞": 638,
      "使": 639,
      "來": 640,
      "例": 641,
      "供": 642,
      "価": 643,
      "俊": 644,
      "保": 645,
      "俠": 646,
      "信": 647,
      "修": 648,
      "倉": 649,
      "個": 650,
      "倍": 651,
      "們": 652,
      "借": 653,
      "假": 654,
      "做": 655,
      "停": 656,
      "健": 657,
      "傅": 658,
      "備": 659,
      "傳": 660,
      "傷": 661,
      "僉": 662,
      "僕": 663,
      "僚": 664,
      "僞": 665,
      "價": 666,
      "儒": 667,
      "償": 668,
      "優": 669,
      "元": 670,
      "兆": 671,
      "兇": 672,
      "先": 673,
      "光": 674,
      "克": 675,
      "入": 676,
      "內": 677,
      "全": 678,
      "兩": 679,
      "兪": 680,
      "公": 681,
      "六": 682,
      "兮": 683,
      "共": 684,
      "兵": 685,
      "其": 686,
      "典": 687,
      "内": 688,
      "再": 689,
      "冠": 690,
      "冬": 691,
      "冶": 692,
      "冷": 693,
      "凡": 694,
      "処": 695,
      "出": 696,
      "分": 697,
      "切": 698,
      "刊": 699,
      "刑": 700,
      "列": 701,
      "则": 702,
      "初": 703,
      "判": 704,
      "別": 705,
      "利": 706,
      "到": 707,
      "制": 708,
      "刻": 709,
      "則": 710,
      "削": 711,
      "前": 712,
      "剛": 713,
      "剝": 714,
      "副": 715,
      "割": 716,
      "創": 717,
      "剽": 718,
      "劃": 719,
      "劑": 720,
      "力": 721,
      "功": 722,
      "加": 723,
      "助": 724,
      "効": 725,
      "勇": 726,
      "動": 727,
      "務": 728,
      "勝": 729,
      "勞": 730,
      "募": 731,
      "勢": 732,
      "勳": 733,
      "勸": 734,
      "勿": 735,
      "包": 736,
      "化": 737,
      "北": 738,
      "匙": 739,
      "匠": 740,
      "匹": 741,
      "区": 742,
      "医": 743,
      "區": 744,
      "十": 745,
      "千": 746,
      "午": 747,
      "半": 748,
      "南": 749,
      "博": 750,
      "卜": 751,
      "卞": 752,
      "占": 753,
      "卦": 754,
      "卯": 755,
      "危": 756,
      "卵": 757,
      "卷": 758,
      "厚": 759,
      "原": 760,
      "去": 761,
      "參": 762,
      "友": 763,
      "双": 764,
      "反": 765,
      "叔": 766,
      "取": 767,
      "受": 768,
      "叛": 769,
      "口": 770,
      "古": 771,
      "可": 772,
      "史": 773,
      "右": 774,
      "号": 775,
      "司": 776,
      "合": 777,
      "吉": 778,
      "吊": 779,
      "同": 780,
      "名": 781,
      "后": 782,
      "吏": 783,
      "向": 784,
      "君": 785,
      "否": 786,
      "吳": 787,
      "吴": 788,
      "吸": 789,
      "吾": 790,
      "呈": 791,
      "告": 792,
      "周": 793,
      "呼": 794,
      "命": 795,
      "和": 796,
      "品": 797,
      "員": 798,
      "哲": 799,
      "唐": 800,
      "唯": 801,
      "商": 802,
      "問": 803,
      "善": 804,
      "喆": 805,
      "喝": 806,
      "喪": 807,
      "單": 808,
      "喻": 809,
      "器": 810,
      "嚴": 811,
      "四": 812,
      "回": 813,
      "因": 814,
      "団": 815,
      "园": 816,
      "困": 817,
      "国": 818,
      "图": 819,
      "國": 820,
      "圖": 821,
      "團": 822,
      "土": 823,
      "在": 824,
      "圭": 825,
      "地": 826,
      "圳": 827,
      "均": 828,
      "坎": 829,
      "坤": 830,
      "坦": 831,
      "坪": 832,
      "垠": 833,
      "垢": 834,
      "垣": 835,
      "城": 836,
      "域": 837,
      "執": 838,
      "培": 839,
      "基": 840,
      "堡": 841,
      "堰": 842,
      "報": 843,
      "場": 844,
      "塗": 845,
      "塚": 846,
      "境": 847,
      "墓": 848,
      "増": 849,
      "增": 850,
      "壓": 851,
      "士": 852,
      "壬": 853,
      "夏": 854,
      "外": 855,
      "多": 856,
      "夜": 857,
      "大": 858,
      "天": 859,
      "太": 860,
      "夫": 861,
      "失": 862,
      "夷": 863,
      "奇": 864,
      "奈": 865,
      "奉": 866,
      "奏": 867,
      "奚": 868,
      "奪": 869,
      "奭": 870,
      "女": 871,
      "奸": 872,
      "好": 873,
      "如": 874,
      "妃": 875,
      "妄": 876,
      "妙": 877,
      "妻": 878,
      "妾": 879,
      "始": 880,
      "姓": 881,
      "委": 882,
      "姙": 883,
      "姜": 884,
      "姦": 885,
      "姬": 886,
      "婚": 887,
      "婦": 888,
      "嫁": 889,
      "嫚": 890,
      "子": 891,
      "孔": 892,
      "字": 893,
      "存": 894,
      "孝": 895,
      "孟": 896,
      "学": 897,
      "孩": 898,
      "孫": 899,
      "學": 900,
      "宇": 901,
      "守": 902,
      "安": 903,
      "宋": 904,
      "完": 905,
      "宗": 906,
      "官": 907,
      "宙": 908,
      "定": 909,
      "宝": 910,
      "宣": 911,
      "室": 912,
      "宰": 913,
      "害": 914,
      "家": 915,
      "容": 916,
      "宿": 917,
      "寃": 918,
      "寅": 919,
      "密": 920,
      "富": 921,
      "寒": 922,
      "實": 923,
      "寨": 924,
      "審": 925,
      "寫": 926,
      "寬": 927,
      "寶": 928,
      "封": 929,
      "射": 930,
      "將": 931,
      "專": 932,
      "尊": 933,
      "對": 934,
      "導": 935,
      "小": 936,
      "少": 937,
      "尖": 938,
      "尙": 939,
      "尹": 940,
      "尽": 941,
      "局": 942,
      "居": 943,
      "屈": 944,
      "屋": 945,
      "層": 946,
      "履": 947,
      "山": 948,
      "峴": 949,
      "島": 950,
      "峽": 951,
      "崔": 952,
      "崧": 953,
      "川": 954,
      "州": 955,
      "巢": 956,
      "工": 957,
      "左": 958,
      "巧": 959,
      "差": 960,
      "已": 961,
      "巳": 962,
      "市": 963,
      "布": 964,
      "希": 965,
      "帝": 966,
      "師": 967,
      "席": 968,
      "帶": 969,
      "常": 970,
      "幇": 971,
      "幫": 972,
      "平": 973,
      "年": 974,
      "幸": 975,
      "幹": 976,
      "広": 977,
      "庇": 978,
      "庚": 979,
      "府": 980,
      "庠": 981,
      "度": 982,
      "座": 983,
      "庫": 984,
      "庭": 985,
      "庶": 986,
      "庸": 987,
      "廉": 988,
      "廣": 989,
      "廳": 990,
      "廷": 991,
      "建": 992,
      "弄": 993,
      "弊": 994,
      "式": 995,
      "弔": 996,
      "引": 997,
      "弗": 998,
      "弘": 999,
      "弛": 1000,
      "弦": 1001,
      "弱": 1002,
      "張": 1003,
      "強": 1004,
      "强": 1005,
      "彈": 1006,
      "形": 1007,
      "彩": 1008,
      "彫": 1009,
      "影": 1010,
      "役": 1011,
      "彿": 1012,
      "律": 1013,
      "後": 1014,
      "徐": 1015,
      "得": 1016,
      "從": 1017,
      "御": 1018,
      "復": 1019,
      "徵": 1020,
      "德": 1021,
      "心": 1022,
      "必": 1023,
      "忌": 1024,
      "忍": 1025,
      "志": 1026,
      "忘": 1027,
      "忠": 1028,
      "忧": 1029,
      "念": 1030,
      "忽": 1031,
      "怒": 1032,
      "思": 1033,
      "急": 1034,
      "性": 1035,
      "恆": 1036,
      "恒": 1037,
      "恣": 1038,
      "恥": 1039,
      "恨": 1040,
      "患": 1041,
      "您": 1042,
      "情": 1043,
      "惑": 1044,
      "惠": 1045,
      "惡": 1046,
      "想": 1047,
      "惻": 1048,
      "意": 1049,
      "愚": 1050,
      "愛": 1051,
      "感": 1052,
      "愼": 1053,
      "慇": 1054,
      "態": 1055,
      "慎": 1056,
      "慮": 1057,
      "慰": 1058,
      "慶": 1059,
      "慾": 1060,
      "憂": 1061,
      "憤": 1062,
      "憲": 1063,
      "懷": 1064,
      "懸": 1065,
      "懼": 1066,
      "戊": 1067,
      "戌": 1068,
      "戎": 1069,
      "成": 1070,
      "我": 1071,
      "戒": 1072,
      "戰": 1073,
      "戱": 1074,
      "戲": 1075,
      "戶": 1076,
      "房": 1077,
      "所": 1078,
      "手": 1079,
      "才": 1080,
      "扮": 1081,
      "承": 1082,
      "技": 1083,
      "投": 1084,
      "抗": 1085,
      "抹": 1086,
      "拂": 1087,
      "拉": 1088,
      "拔": 1089,
      "拘": 1090,
      "拜": 1091,
      "拯": 1092,
      "拳": 1093,
      "拼": 1094,
      "持": 1095,
      "指": 1096,
      "捋": 1097,
      "捲": 1098,
      "授": 1099,
      "掌": 1100,
      "排": 1101,
      "推": 1102,
      "措": 1103,
      "提": 1104,
      "握": 1105,
      "揮": 1106,
      "援": 1107,
      "搏": 1108,
      "搜": 1109,
      "摠": 1110,
      "撑": 1111,
      "擅": 1112,
      "擇": 1113,
      "擊": 1114,
      "操": 1115,
      "擔": 1116,
      "據": 1117,
      "擧": 1118,
      "擬": 1119,
      "攪": 1120,
      "支": 1121,
      "收": 1122,
      "改": 1123,
      "攻": 1124,
      "放": 1125,
      "政": 1126,
      "故": 1127,
      "效": 1128,
      "敌": 1129,
      "敍": 1130,
      "敎": 1131,
      "敏": 1132,
      "救": 1133,
      "敖": 1134,
      "教": 1135,
      "敢": 1136,
      "敬": 1137,
      "敲": 1138,
      "敵": 1139,
      "數": 1140,
      "文": 1141,
      "料": 1142,
      "斥": 1143,
      "斧": 1144,
      "斯": 1145,
      "新": 1146,
      "斷": 1147,
      "方": 1148,
      "於": 1149,
      "施": 1150,
      "旅": 1151,
      "族": 1152,
      "旗": 1153,
      "无": 1154,
      "旣": 1155,
      "日": 1156,
      "旦": 1157,
      "早": 1158,
      "旭": 1159,
      "昌": 1160,
      "明": 1161,
      "易": 1162,
      "星": 1163,
      "春": 1164,
      "昭": 1165,
      "是": 1166,
      "時": 1167,
      "晋": 1168,
      "晟": 1169,
      "晩": 1170,
      "景": 1171,
      "曰": 1172,
      "曲": 1173,
      "更": 1174,
      "書": 1175,
      "曹": 1176,
      "曾": 1177,
      "最": 1178,
      "會": 1179,
      "月": 1180,
      "有": 1181,
      "服": 1182,
      "朝": 1183,
      "期": 1184,
      "木": 1185,
      "未": 1186,
      "本": 1187,
      "札": 1188,
      "朱": 1189,
      "朴": 1190,
      "李": 1191,
      "村": 1192,
      "杓": 1193,
      "東": 1194,
      "板": 1195,
      "林": 1196,
      "柄": 1197,
      "某": 1198,
      "柔": 1199,
      "柱": 1200,
      "柳": 1201,
      "査": 1202,
      "栗": 1203,
      "校": 1204,
      "株": 1205,
      "核": 1206,
      "根": 1207,
      "格": 1208,
      "栽": 1209,
      "案": 1210,
      "桓": 1211,
      "梁": 1212,
      "條": 1213,
      "棄": 1214,
      "森": 1215,
      "植": 1216,
      "楚": 1217,
      "業": 1218,
      "極": 1219,
      "榕": 1220,
      "榮": 1221,
      "構": 1222,
      "槪": 1223,
      "槿": 1224,
      "樂": 1225,
      "樓": 1226,
      "標": 1227,
      "樞": 1228,
      "模": 1229,
      "樣": 1230,
      "樹": 1231,
      "橋": 1232,
      "機": 1233,
      "檀": 1234,
      "檢": 1235,
      "欄": 1236,
      "權": 1237,
      "次": 1238,
      "欺": 1239,
      "欽": 1240,
      "款": 1241,
      "歌": 1242,
      "歎": 1243,
      "歐": 1244,
      "止": 1245,
      "正": 1246,
      "此": 1247,
      "步": 1248,
      "武": 1249,
      "歳": 1250,
      "歷": 1251,
      "歸": 1252,
      "死": 1253,
      "殃": 1254,
      "殖": 1255,
      "殘": 1256,
      "段": 1257,
      "殺": 1258,
      "毁": 1259,
      "毅": 1260,
      "母": 1261,
      "毒": 1262,
      "比": 1263,
      "氏": 1264,
      "民": 1265,
      "氣": 1266,
      "水": 1267,
      "永": 1268,
      "汀": 1269,
      "求": 1270,
      "汇": 1271,
      "汉": 1272,
      "汚": 1273,
      "江": 1274,
      "池": 1275,
      "決": 1276,
      "沃": 1277,
      "沈": 1278,
      "沖": 1279,
      "沙": 1280,
      "沮": 1281,
      "河": 1282,
      "油": 1283,
      "治": 1284,
      "沿": 1285,
      "況": 1286,
      "泉": 1287,
      "法": 1288,
      "波": 1289,
      "注": 1290,
      "泰": 1291,
      "洙": 1292,
      "洞": 1293,
      "津": 1294,
      "洪": 1295,
      "洸": 1296,
      "活": 1297,
      "派": 1298,
      "流": 1299,
      "浣": 1300,
      "浦": 1301,
      "浩": 1302,
      "海": 1303,
      "消": 1304,
      "液": 1305,
      "涵": 1306,
      "淑": 1307,
      "深": 1308,
      "淵": 1309,
      "淸": 1310,
      "渡": 1311,
      "湜": 1312,
      "湧": 1313,
      "湯": 1314,
      "源": 1315,
      "準": 1316,
      "溝": 1317,
      "溫": 1318,
      "溶": 1319,
      "滅": 1320,
      "滨": 1321,
      "滴": 1322,
      "漏": 1323,
      "漢": 1324,
      "漸": 1325,
      "潟": 1326,
      "潤": 1327,
      "澈": 1328,
      "澱": 1329,
      "濟": 1330,
      "火": 1331,
      "灸": 1332,
      "災": 1333,
      "炅": 1334,
      "炫": 1335,
      "炯": 1336,
      "炳": 1337,
      "為": 1338,
      "烈": 1339,
      "無": 1340,
      "然": 1341,
      "煽": 1342,
      "熊": 1343,
      "熙": 1344,
      "熟": 1345,
      "熱": 1346,
      "燈": 1347,
      "燕": 1348,
      "燦": 1349,
      "燮": 1350,
      "燾": 1351,
      "爭": 1352,
      "爲": 1353,
      "爵": 1354,
      "父": 1355,
      "爻": 1356,
      "版": 1357,
      "牛": 1358,
      "物": 1359,
      "特": 1360,
      "牽": 1361,
      "犬": 1362,
      "犯": 1363,
      "狀": 1364,
      "狂": 1365,
      "狄": 1366,
      "猛": 1367,
      "献": 1368,
      "獄": 1369,
      "獨": 1370,
      "獲": 1371,
      "獸": 1372,
      "獺": 1373,
      "獻": 1374,
      "玄": 1375,
      "玉": 1376,
      "王": 1377,
      "玟": 1378,
      "珠": 1379,
      "現": 1380,
      "球": 1381,
      "理": 1382,
      "琉": 1383,
      "琫": 1384,
      "琴": 1385,
      "瑕": 1386,
      "瑛": 1387,
      "瑥": 1388,
      "璘": 1389,
      "環": 1390,
      "璿": 1391,
      "瓚": 1392,
      "甘": 1393,
      "生": 1394,
      "産": 1395,
      "用": 1396,
      "田": 1397,
      "由": 1398,
      "甲": 1399,
      "申": 1400,
      "男": 1401,
      "町": 1402,
      "画": 1403,
      "界": 1404,
      "畎": 1405,
      "畓": 1406,
      "留": 1407,
      "畝": 1408,
      "略": 1409,
      "異": 1410,
      "當": 1411,
      "畸": 1412,
      "疆": 1413,
      "疏": 1414,
      "疑": 1415,
      "疵": 1416,
      "病": 1417,
      "症": 1418,
      "癌": 1419,
      "癖": 1420,
      "登": 1421,
      "發": 1422,
      "白": 1423,
      "百": 1424,
      "的": 1425,
      "皆": 1426,
      "皇": 1427,
      "皓": 1428,
      "皮": 1429,
      "盈": 1430,
      "益": 1431,
      "盛": 1432,
      "盜": 1433,
      "盡": 1434,
      "監": 1435,
      "盤": 1436,
      "盧": 1437,
      "目": 1438,
      "直": 1439,
      "相": 1440,
      "省": 1441,
      "眞": 1442,
      "眼": 1443,
      "眾": 1444,
      "着": 1445,
      "督": 1446,
      "矣": 1447,
      "知": 1448,
      "短": 1449,
      "矯": 1450,
      "石": 1451,
      "砲": 1452,
      "破": 1453,
      "硏": 1454,
      "碍": 1455,
      "碎": 1456,
      "碑": 1457,
      "碩": 1458,
      "磁": 1459,
      "社": 1460,
      "祐": 1461,
      "祖": 1462,
      "祝": 1463,
      "神": 1464,
      "祿": 1465,
      "禁": 1466,
      "福": 1467,
      "禛": 1468,
      "禮": 1469,
      "秀": 1470,
      "私": 1471,
      "秉": 1472,
      "秋": 1473,
      "科": 1474,
      "租": 1475,
      "移": 1476,
      "稀": 1477,
      "稅": 1478,
      "程": 1479,
      "種": 1480,
      "積": 1481,
      "究": 1482,
      "空": 1483,
      "穿": 1484,
      "突": 1485,
      "窟": 1486,
      "竊": 1487,
      "立": 1488,
      "竝": 1489,
      "端": 1490,
      "笔": 1491,
      "笙": 1492,
      "第": 1493,
      "等": 1494,
      "筋": 1495,
      "筏": 1496,
      "答": 1497,
      "策": 1498,
      "算": 1499,
      "管": 1500,
      "節": 1501,
      "範": 1502,
      "築": 1503,
      "簽": 1504,
      "籍": 1505,
      "粉": 1506,
      "精": 1507,
      "糞": 1508,
      "紀": 1509,
      "約": 1510,
      "紅": 1511,
      "紋": 1512,
      "純": 1513,
      "級": 1514,
      "索": 1515,
      "紫": 1516,
      "累": 1517,
      "終": 1518,
      "組": 1519,
      "経": 1520,
      "結": 1521,
      "給": 1522,
      "統": 1523,
      "絲": 1524,
      "經": 1525,
      "綠": 1526,
      "綱": 1527,
      "網": 1528,
      "綻": 1529,
      "緖": 1530,
      "線": 1531,
      "緣": 1532,
      "編": 1533,
      "練": 1534,
      "縛": 1535,
      "縣": 1536,
      "總": 1537,
      "績": 1538,
      "繫": 1539,
      "繼": 1540,
      "缺": 1541,
      "罔": 1542,
      "罪": 1543,
      "置": 1544,
      "罰": 1545,
      "署": 1546,
      "羅": 1547,
      "美": 1548,
      "羞": 1549,
      "群": 1550,
      "義": 1551,
      "翊": 1552,
      "習": 1553,
      "翰": 1554,
      "耀": 1555,
      "老": 1556,
      "考": 1557,
      "者": 1558,
      "而": 1559,
      "耳": 1560,
      "聖": 1561,
      "聞": 1562,
      "聯": 1563,
      "聲": 1564,
      "職": 1565,
      "肅": 1566,
      "肉": 1567,
      "肖": 1568,
      "肪": 1569,
      "育": 1570,
      "胃": 1571,
      "背": 1572,
      "胤": 1573,
      "能": 1574,
      "脂": 1575,
      "脚": 1576,
      "脣": 1577,
      "脫": 1578,
      "腦": 1579,
      "膏": 1580,
      "膚": 1581,
      "膠": 1582,
      "臣": 1583,
      "臨": 1584,
      "自": 1585,
      "至": 1586,
      "致": 1587,
      "與": 1588,
      "興": 1589,
      "舉": 1590,
      "舊": 1591,
      "舌": 1592,
      "舒": 1593,
      "舜": 1594,
      "舞": 1595,
      "舟": 1596,
      "船": 1597,
      "良": 1598,
      "色": 1599,
      "花": 1600,
      "苑": 1601,
      "苗": 1602,
      "苦": 1603,
      "英": 1604,
      "茶": 1605,
      "草": 1606,
      "荷": 1607,
      "菊": 1608,
      "華": 1609,
      "菱": 1610,
      "萬": 1611,
      "落": 1612,
      "葉": 1613,
      "蓋": 1614,
      "蔘": 1615,
      "蔭": 1616,
      "蔽": 1617,
      "蕭": 1618,
      "薄": 1619,
      "薇": 1620,
      "薛": 1621,
      "薩": 1622,
      "藏": 1623,
      "藝": 1624,
      "藤": 1625,
      "藥": 1626,
      "蘇": 1627,
      "虎": 1628,
      "虐": 1629,
      "處": 1630,
      "虛": 1631,
      "號": 1632,
      "蠻": 1633,
      "血": 1634,
      "衆": 1635,
      "行": 1636,
      "術": 1637,
      "衛": 1638,
      "衡": 1639,
      "衣": 1640,
      "表": 1641,
      "袋": 1642,
      "被": 1643,
      "裁": 1644,
      "裂": 1645,
      "補": 1646,
      "裝": 1647,
      "製": 1648,
      "複": 1649,
      "褙": 1650,
      "西": 1651,
      "要": 1652,
      "覇": 1653,
      "見": 1654,
      "規": 1655,
      "視": 1656,
      "親": 1657,
      "覺": 1658,
      "觀": 1659,
      "角": 1660,
      "解": 1661,
      "言": 1662,
      "計": 1663,
      "訊": 1664,
      "記": 1665,
      "設": 1666,
      "訴": 1667,
      "註": 1668,
      "詞": 1669,
      "試": 1670,
      "詩": 1671,
      "詳": 1672,
      "認": 1673,
      "誕": 1674,
      "語": 1675,
      "誠": 1676,
      "誣": 1677,
      "誤": 1678,
      "說": 1679,
      "読": 1680,
      "課": 1681,
      "調": 1682,
      "請": 1683,
      "論": 1684,
      "諸": 1685,
      "謀": 1686,
      "謂": 1687,
      "謙": 1688,
      "謹": 1689,
      "證": 1690,
      "識": 1691,
      "警": 1692,
      "議": 1693,
      "護": 1694,
      "讀": 1695,
      "變": 1696,
      "讎": 1697,
      "讒": 1698,
      "讚": 1699,
      "谷": 1700,
      "豈": 1701,
      "豊": 1702,
      "豚": 1703,
      "象": 1704,
      "豫": 1705,
      "貝": 1706,
      "貞": 1707,
      "財": 1708,
      "貨": 1709,
      "貪": 1710,
      "貴": 1711,
      "買": 1712,
      "貸": 1713,
      "費": 1714,
      "賀": 1715,
      "賃": 1716,
      "資": 1717,
      "賈": 1718,
      "賊": 1719,
      "賜": 1720,
      "賢": 1721,
      "賣": 1722,
      "質": 1723,
      "賴": 1724,
      "贈": 1725,
      "赤": 1726,
      "赵": 1727,
      "起": 1728,
      "趙": 1729,
      "足": 1730,
      "跋": 1731,
      "路": 1732,
      "踊": 1733,
      "蹄": 1734,
      "身": 1735,
      "車": 1736,
      "軍": 1737,
      "軸": 1738,
      "載": 1739,
      "輿": 1740,
      "轉": 1741,
      "车": 1742,
      "辛": 1743,
      "辜": 1744,
      "辭": 1745,
      "辯": 1746,
      "辰": 1747,
      "辱": 1748,
      "農": 1749,
      "込": 1750,
      "近": 1751,
      "迫": 1752,
      "述": 1753,
      "追": 1754,
      "退": 1755,
      "送": 1756,
      "逆": 1757,
      "逋": 1758,
      "透": 1759,
      "通": 1760,
      "速": 1761,
      "造": 1762,
      "連": 1763,
      "週": 1764,
      "進": 1765,
      "遁": 1766,
      "遂": 1767,
      "遇": 1768,
      "運": 1769,
      "過": 1770,
      "道": 1771,
      "違": 1772,
      "遜": 1773,
      "遠": 1774,
      "適": 1775,
      "遵": 1776,
      "遷": 1777,
      "遺": 1778,
      "避": 1779,
      "還": 1780,
      "邊": 1781,
      "邑": 1782,
      "邦": 1783,
      "邪": 1784,
      "邱": 1785,
      "郊": 1786,
      "郞": 1787,
      "郡": 1788,
      "部": 1789,
      "郭": 1790,
      "都": 1791,
      "鄕": 1792,
      "鄧": 1793,
      "鄭": 1794,
      "酉": 1795,
      "酷": 1796,
      "醒": 1797,
      "醫": 1798,
      "釋": 1799,
      "里": 1800,
      "重": 1801,
      "野": 1802,
      "量": 1803,
      "金": 1804,
      "釘": 1805,
      "釜": 1806,
      "鈴": 1807,
      "鉉": 1808,
      "銀": 1809,
      "銃": 1810,
      "銅": 1811,
      "錄": 1812,
      "錐": 1813,
      "錢": 1814,
      "錦": 1815,
      "錫": 1816,
      "錯": 1817,
      "鍼": 1818,
      "鍾": 1819,
      "鎖": 1820,
      "鎬": 1821,
      "鎭": 1822,
      "鐘": 1823,
      "鐵": 1824,
      "鑑": 1825,
      "長": 1826,
      "門": 1827,
      "開": 1828,
      "閏": 1829,
      "閑": 1830,
      "間": 1831,
      "閔": 1832,
      "閥": 1833,
      "關": 1834,
      "闡": 1835,
      "闢": 1836,
      "防": 1837,
      "阳": 1838,
      "阿": 1839,
      "附": 1840,
      "降": 1841,
      "限": 1842,
      "陛": 1843,
      "院": 1844,
      "除": 1845,
      "陪": 1846,
      "陰": 1847,
      "陳": 1848,
      "陵": 1849,
      "陶": 1850,
      "陽": 1851,
      "隆": 1852,
      "階": 1853,
      "隔": 1854,
      "障": 1855,
      "隣": 1856,
      "隨": 1857,
      "隱": 1858,
      "隷": 1859,
      "雄": 1860,
      "集": 1861,
      "雇": 1862,
      "雙": 1863,
      "離": 1864,
      "難": 1865,
      "雲": 1866,
      "電": 1867,
      "需": 1868,
      "露": 1869,
      "靈": 1870,
      "靑": 1871,
      "青": 1872,
      "非": 1873,
      "面": 1874,
      "革": 1875,
      "韓": 1876,
      "韩": 1877,
      "音": 1878,
      "韶": 1879,
      "順": 1880,
      "領": 1881,
      "頭": 1882,
      "題": 1883,
      "額": 1884,
      "顔": 1885,
      "願": 1886,
      "類": 1887,
      "顧": 1888,
      "顯": 1889,
      "颉": 1890,
      "風": 1891,
      "飛": 1892,
      "食": 1893,
      "飯": 1894,
      "養": 1895,
      "餓": 1896,
      "餘": 1897,
      "館": 1898,
      "馆": 1899,
      "首": 1900,
      "馬": 1901,
      "駐": 1902,
      "騰": 1903,
      "驕": 1904,
      "驚": 1905,
      "驻": 1906,
      "骨": 1907,
      "體": 1908,
      "高": 1909,
      "髮": 1910,
      "鬲": 1911,
      "鬼": 1912,
      "魁": 1913,
      "魂": 1914,
      "魄": 1915,
      "魏": 1916,
      "魚": 1917,
      "鮮": 1918,
      "鳥": 1919,
      "鹽": 1920,
      "鹿": 1921,
      "麗": 1922,
      "麤": 1923,
      "麻": 1924,
      "黃": 1925,
      "默": 1926,
      "點": 1927,
      "黨": 1928,
      "鼎": 1929,
      "鼓": 1930,
      "鼻": 1931,
      "齊": 1932,
      "齒": 1933,
      "龍": 1934,
      "龐": 1935,
      "龙": 1936,
      "龜": 1937,
      "龟": 1938,
      "": 1939,
      "": 1940,
      "": 1941,
      "": 1942,
      "": 1943,
      "": 1944,
      "": 1945,
      "": 1946,
      "": 1947,
      "": 1948,
      "": 1949,
      "": 1950,
      "": 1951,
      "": 1952,
      "": 1953,
      "": 1954,
      "️": 1955,
      "ﻬ": 1956,
      "﻿": 1957,
      "！": 1958,
      "＂": 1959,
      "％": 1960,
      "＇": 1961,
      "（": 1962,
      "）": 1963,
      "＊": 1964,
      "，": 1965,
      "－": 1966,
      "．": 1967,
      "０": 1968,
      "１": 1969,
      "２": 1970,
      "３": 1971,
      "５": 1972,
      "６": 1973,
      "７": 1974,
      "９": 1975,
      "：": 1976,
      "；": 1977,
      "＜": 1978,
      "＝": 1979,
      "＞": 1980,
      "？": 1981,
      "＼": 1982,
      "ａ": 1983,
      "ｃ": 1984,
      "ｄ": 1985,
      "ｅ": 1986,
      "ｉ": 1987,
      "ｌ": 1988,
      "ｍ": 1989,
      "ｎ": 1990,
      "ｏ": 1991,
      "ｐ": 1992,
      "ｒ": 1993,
      "ｓ": 1994,
      "ｔ": 1995,
      "ｖ": 1996,
      "ｘ": 1997,
      "｛": 1998,
      "｝": 1999,
      "～": 2000,
      "｡": 2001,
      "｢": 2002,
      "｣": 2003,
      "､": 2004,
      "･": 2005,
      "ﾉ": 2006,
      "￦": 2007,
      "￭": 2008,
      "�": 2009,
      "𐄁": 2010,
      "𔃱": 2011,
      "🆗": 2012,
      "🌏": 2013,
      "🌜": 2014,
      "🌱": 2015,
      "🌳": 2016,
      "🍒": 2017,
      "🍕": 2018,
      "🎈": 2019,
      "🎑": 2020,
      "🏁": 2021,
      "🏨": 2022,
      "🏻": 2023,
      "🏿": 2024,
      "🐍": 2025,
      "🐒": 2026,
      "🐕": 2027,
      "🐜": 2028,
      "🐭": 2029,
      "🐳": 2030,
      "🐶": 2031,
      "👈": 2032,
      "👉": 2033,
      "👊": 2034,
      "👋": 2035,
      "👍": 2036,
      "👎": 2037,
      "👏": 2038,
      "👣": 2039,
      "👹": 2040,
      "👿": 2041,
      "💓": 2042,
      "💕": 2043,
      "💖": 2044,
      "💗": 2045,
      "💝": 2046,
      "💥": 2047,
      "💨": 2048,
      "🔁": 2049,
      "🔥": 2050,
      "🔴": 2051,
      "🔺": 2052,
      "🕛": 2053,
      "🖕": 2054,
      "😀": 2055,
      "😁": 2056,
      "😂": 2057,
      "😃": 2058,
      "😄": 2059,
      "😅": 2060,
      "😈": 2061,
      "😉": 2062,
      "😊": 2063,
      "😍": 2064,
      "😠": 2065,
      "😡": 2066,
      "😢": 2067,
      "😣": 2068,
      "😥": 2069,
      "😨": 2070,
      "😬": 2071,
      "😭": 2072,
      "😮": 2073,
      "😯": 2074,
      "😲": 2075,
      "😳": 2076,
      "😵": 2077,
      "🙄": 2078,
      "🙋": 2079,
      "🙌": 2080,
      "🙏": 2081,
      "🚒": 2082,
      "🤗": 2083,
      "🤬": 2084,
      "🤮": 2085,
      "𧬰": 2086,
      "󰁾": 2087,
      "󰊱": 2088,
      "󰊲": 2089,
      "󰊳": 2090,
      "󰊴": 2091,
      "󰋪": 2092,
      "󰋯": 2093,
      "󰏚": 2094,
      "󰡐": 2095,
      "󰡑": 2096,
      "󰡒": 2097,
      "󰡓": 2098,
      "󰡔": 2099,
      "󰡕": 2100,
      "##ᅰ": 2101,
      "##ᆸ": 2102,
      "##ᄀ": 2103,
      "##ᅢ": 2104,
      "##ᄇ": 2105,
      "##ᅡ": 2106,
      "##ᆯ": 2107,
      "##ᄋ": 2108,
      "##ᅥ": 2109,
      "##ᄎ": 2110,
      "##ᅦ": 2111,
      "##ᄂ": 2112,
      "##ᅳ": 2113,
      "##ᆫ": 2114,
      "##ᆼ": 2115,
      "##ᄃ": 2116,
      "##ᅩ": 2117,
      "##ᄐ": 2118,
      "##ᆨ": 2119,
      "##ᄉ": 2120,
      "##ᆷ": 2121,
      "##ᅵ": 2122,
      "##ᅪ": 2123,
      "##ᄌ": 2124,
      "##ᅯ": 2125,
      "##ᆺ": 2126,
      "##ᄒ": 2127,
      "##ᄅ": 2128,
      "##ᅲ": 2129,
      "##ᅬ": 2130,
      "##ᄆ": 2131,
      "##ᅮ": 2132,
      "##ᄊ": 2133,
      "##ᅧ": 2134,
      "##ᅭ": 2135,
      "##l": 2136,
      "##h": 2137,
      "##ᆻ": 2138,
      "##7": 2139,
      "##ᅴ": 2140,
      "##ᅨ": 2141,
      "##ᄁ": 2142,
      "##ᄑ": 2143,
      "##ᅫ": 2144,
      "##ᆩ": 2145,
      "##ᄏ": 2146,
      "##o": 2147,
      "##ᄄ": 2148,
      "##ᅣ": 2149,
      "##5": 2150,
      "##ᆭ": 2151,
      "##e": 2152,
      "##r": 2153,
      "##a": 2154,
      "##v": 2155,
      "##d": 2156,
      "##ᆽ": 2157,
      "##0": 2158,
      "##1": 2159,
      "##6": 2160,
      "##3": 2161,
      "##2": 2162,
      "##ᄍ": 2163,
      "##9": 2164,
      "##ᅱ": 2165,
      "##u": 2166,
      "##s": 2167,
      "##ᆹ": 2168,
      "##ᆮ": 2169,
      "##ᄈ": 2170,
      "##4": 2171,
      "##ᇀ": 2172,
      "##ᆾ": 2173,
      "##ㅇ": 2174,
      "##f": 2175,
      "##t": 2176,
      "##ᇂ": 2177,
      "##m": 2178,
      "##p": 2179,
      "##b": 2180,
      "##ᆶ": 2181,
      "##n": 2182,
      "##y": 2183,
      "##ᅤ": 2184,
      "##8": 2185,
      "##ㅡ": 2186,
      "##ㅠ": 2187,
      "##-": 2188,
      "##^": 2189,
      "##i": 2190,
      "##g": 2191,
      "##ᇁ": 2192,
      "##ᆢ": 2193,
      "##c": 2194,
      "##ᆰ": 2195,
      "##ㆍ": 2196,
      "##ᆱ": 2197,
      "##~": 2198,
      "##!": 2199,
      "##上": 2200,
      "##ㅋ": 2201,
      "##=": 2202,
      "##_": 2203,
      "##k": 2204,
      "##內": 2205,
      "##.": 2206,
      "##’": 2207,
      "##聞": 2208,
      "##餘": 2209,
      "##教": 2210,
      "##ᆲ": 2211,
      "##j": 2212,
      "##ᆞ": 2213,
      "###": 2214,
      "##;": 2215,
      "##貞": 2216,
      "##淑": 2217,
      "##w": 2218,
      "##ㅛ": 2219,
      "##․": 2220,
      "##面": 2221,
      "##獸": 2222,
      "##心": 2223,
      "##>": 2224,
      "##×": 2225,
      "##ᆬ": 2226,
      "##ᆪ": 2227,
      "##信": 2228,
      "##<": 2229,
      "##̉": 2230,
      "##x": 2231,
      "##\"": 2232,
      "##民": 2233,
      "##人": 2234,
      "##語": 2235,
      "##長": 2236,
      "##國": 2237,
      "##q": 2238,
      "##)": 2239,
      "##,": 2240,
      "##非": 2241,
      "##婚": 2242,
      "##ㅓ": 2243,
      "##ㄹ": 2244,
      "##ㅜ": 2245,
      "##/": 2246,
      "##ㄷ": 2247,
      "##$": 2248,
      "##地": 2249,
      "##定": 2250,
      "##速": 2251,
      "##😡": 2252,
      "##🤬": 2253,
      "##غ": 2254,
      "##ل": 2255,
      "##ا": 2256,
      "##ق": 2257,
      "##名": 2258,
      "##美": 2259,
      "##“": 2260,
      "##源": 2261,
      "##☎": 2262,
      "##z": 2263,
      "##孝": 2264,
      "##相": 2265,
      "##海": 2266,
      "##澈": 2267,
      "##釘": 2268,
      "##積": 2269,
      "##ㅉ": 2270,
      "##ㅈ": 2271,
      "##保": 2272,
      "##家": 2273,
      "##ᆳ": 2274,
      "##ㅎ": 2275,
      "##令": 2276,
      "##圭": 2277,
      "##伯": 2278,
      "##樞": 2279,
      "##經": 2280,
      "##*": 2281,
      "##０": 2282,
      "##９": 2283,
      "##怒": 2284,
      "##良": 2285,
      "##火": 2286,
      "##劃": 2287,
      "##┓": 2288,
      "##」": 2289,
      "##ｅ": 2290,
      "##ｔ": 2291,
      "##社": 2292,
      "##ㅣ": 2293,
      "##(": 2294,
      "##'": 2295,
      "##代": 2296,
      "##殃": 2297,
      "##ㅐ": 2298,
      "##…": 2299,
      "##”": 2300,
      "##?": 2301,
      "##ㅅ": 2302,
      "##́": 2303,
      "##﻿": 2304,
      "##ㅏ": 2305,
      "##ㄴ": 2306,
      "##本": 2307,
      "##の": 2308,
      "##漢": 2309,
      "##方": 2310,
      "##②": 2311,
      "##字": 2312,
      "##罪": 2313,
      "##於": 2314,
      "##憂": 2315,
      "##患": 2316,
      "##苦": 2317,
      "##政": 2318,
      "##權": 2319,
      "##ه": 2320,
      "##旗": 2321,
      "##麻": 2322,
      "##學": 2323,
      "##者": 2324,
      "##④": 2325,
      "##故": 2326,
      "##法": 2327,
      "##歸": 2328,
      "##一": 2329,
      "##]": 2330,
      "##姬": 2331,
      "##唯": 2332,
      "##無": 2333,
      "##二": 2334,
      "##韓": 2335,
      "##😭": 2336,
      "##🙏": 2337,
      "##ᆿ": 2338,
      "##由": 2339,
      "##ㅌ": 2340,
      "##重": 2341,
      "##敎": 2342,
      "##①": 2343,
      "##要": 2344,
      "##是": 2345,
      "##居": 2346,
      "##住": 2347,
      "##韩": 2348,
      "##国": 2349,
      "##仁": 2350,
      "##川": 2351,
      "##东": 2352,
      "##区": 2353,
      "##的": 2354,
      "##標": 2355,
      "##不": 2356,
      "##治": 2357,
      "##『": 2358,
      "##ᆵ": 2359,
      "##★": 2360,
      "##音": 2361,
      "##ㄱ": 2362,
      "##○": 2363,
      "##道": 2364,
      "##致": 2365,
      "##基": 2366,
      "##俊": 2367,
      "##": 2368,
      "##·": 2369,
      "##⓵": 2370,
      "##〮": 2371,
      "##ユ": 2372,
      "##ﾉ": 2373,
      "##シ": 2374,
      "##゙": 2375,
      "##ア": 2376,
      "##ム": 2377,
      "##​": 2378,
      "##柄": 2379,
      "##育": 2380,
      "##下": 2381,
      "##復": 2382,
      "##興": 2383,
      "##友": 2384,
      "##好": 2385,
      "##合": 2386,
      "##作": 2387,
      "##發": 2388,
      "##付": 2389,
      "##خ": 2390,
      "##ذ": 2391,
      "##ت": 2392,
      "##官": 2393,
      "##♡": 2394,
      "##△": 2395,
      "##无": 2396,
      "##强": 2397,
      "##敌": 2398,
      "##外": 2399,
      "##后": 2400,
      "##知": 2401,
      "##生": 2402,
      "##于": 2403,
      "##忧": 2404,
      "##ㅂ": 2405,
      "##部": 2406,
      "##ㄲ": 2407,
      "##:": 2408,
      "##山": 2409,
      "##文": 2410,
      "##ن": 2411,
      "##順": 2412,
      "##某": 2413,
      "##弛": 2414,
      "##姦": 2415,
      "##ᆴ": 2416,
      "##消": 2417,
      "##處": 2418,
      "##分": 2419,
      "##在": 2420,
      "##鉉": 2421,
      "##̄": 2422,
      "##和": 2423,
      "##ف": 2424,
      "##査": 2425,
      "##行": 2426,
      "##庭": 2427,
      "##史": 2428,
      "##必": 2429,
      "##正": 2430,
      "##統": 2431,
      "##領": 2432,
      "##藤": 2433,
      "##博": 2434,
      "##母": 2435,
      "##三": 2436,
      "##遷": 2437,
      "##之": 2438,
      "##😬": 2439,
      "##絲": 2440,
      "##得": 2441,
      "##命": 2442,
      "##☺": 2443,
      "##㎡": 2444,
      "##英": 2445,
      "##典": 2446,
      "##事": 2447,
      "##會": 2448,
      "##規": 2449,
      "##職": 2450,
      "##–": 2451,
      "##ㅁ": 2452,
      "##肪": 2453,
      "##₩": 2454,
      "##君": 2455,
      "##可": 2456,
      "##以": 2457,
      "##慎": 2458,
      "##也": 2459,
      "##條": 2460,
      "##機": 2461,
      "##永": 2462,
      "##杓": 2463,
      "##厚": 2464,
      "##顔": 2465,
      "##[": 2466,
      "##場": 2467,
      "##共": 2468,
      "##戒": 2469,
      "##義": 2470,
      "##均": 2471,
      "##近": 2472,
      "##平": 2473,
      "##情": 2474,
      "##「": 2475,
      "##滴": 2476,
      "##穿": 2477,
      "##石": 2478,
      "##皮": 2479,
      "##@": 2480,
      "##蔘": 2481,
      "##父": 2482,
      "##┃": 2483,
      "##水": 2484,
      "##位": 2485,
      "##搏": 2486,
      "##戱": 2487,
      "##}": 2488,
      "##貸": 2489,
      "##ы": 2490,
      "##曹": 2491,
      "##隨": 2492,
      "##恒": 2493,
      "##亡": 2494,
      "##➁": 2495,
      "##⑤": 2496,
      "##橋": 2497,
      "##帝": 2498,
      "##号": 2499,
      "##而": 2500,
      "##死": 2501,
      "##安": 2502,
      "##樂": 2503,
      "##援": 2504,
      "##宙": 2505,
      "##洪": 2506,
      "##黃": 2507,
      "##车": 2508,
      "##校": 2509,
      "##佞": 2510,
      "##讒": 2511,
      "##酉": 2512,
      "##船": 2513,
      "##有": 2514,
      "##器": 2515,
      "##裂": 2516,
      "##考": 2517,
      "##寅": 2518,
      "##年": 2519,
      "##—": 2520,
      "##殺": 2521,
      "##`": 2522,
      "##料": 2523,
      "##惡": 2524,
      "##車": 2525,
      "##動": 2526,
      "##大": 2527,
      "##泉": 2528,
      "##\\": 2529,
      "##م": 2530,
      "##ر": 2531,
      "##ك": 2532,
      "##ز": 2533,
      "##角": 2534,
      "##牛": 2535,
      "##後": 2536,
      "##か": 2537,
      "##ら": 2538,
      "##時": 2539,
      "##に": 2540,
      "##中": 2541,
      "##古": 2542,
      "##医": 2543,
      "##学": 2544,
      "##書": 2545,
      "##つ": 2546,
      "##成": 2547,
      "##虎": 2548,
      "##斥": 2549,
      "##置": 2550,
      "##言": 2551,
      "##🏻": 2552,
      "##等": 2553,
      "##公": 2554,
      "##ㅔ": 2555,
      "##慮": 2556,
      "##》": 2557,
      "##導": 2558,
      "##弗": 2559,
      "##憲": 2560,
      "##褙": 2561,
      "##😊": 2562,
      "##附": 2563,
      "##釋": 2564,
      "##放": 2565,
      "##守": 2566,
      "##‘": 2567,
      "##層": 2568,
      "##̈": 2569,
      "##波": 2570,
      "##神": 2571,
      "##病": 2572,
      "##實": 2573,
      "##容": 2574,
      "##鍾": 2575,
      "##奭": 2576,
      "##氣": 2577,
      "##氏": 2578,
      "##‥": 2579,
      "##敬": 2580,
      "##老": 2581,
      "##食": 2582,
      "##低": 2583,
      "##賃": 2584,
      "##金": 2585,
      "##ⅱ": 2586,
      "##拜": 2587,
      "##九": 2588,
      "##敲": 2589,
      "##頭": 2590,
      "##禮": 2591,
      "##乘": 2592,
      "##≫": 2593,
      "##《": 2594,
      "##磁": 2595,
      "##性": 2596,
      "##族": 2597,
      "##ㅖ": 2598,
      "##黨": 2599,
      "##+": 2600,
      "##③": 2601,
      "##ㅊ": 2602,
      "##算": 2603,
      "##同": 2604,
      "##意": 2605,
      "##數": 2606,
      "##皆": 2607,
      "##兵": 2608,
      "##⇒": 2609,
      "##避": 2610,
      "##線": 2611,
      "##連": 2612,
      "##繫": 2613,
      "##😈": 2614,
      "##日": 2615,
      "##東": 2616,
      "##喆": 2617,
      "##戰": 2618,
      "##雇": 2619,
      "##手": 2620,
      "##當": 2621,
      "##□": 2622,
      "##否": 2623,
      "##星": 2624,
      "##出": 2625,
      "##版": 2626,
      "##謹": 2627,
      "##此": 2628,
      "##足": 2629,
      "##楚": 2630,
      "##矣": 2631,
      "##妻": 2632,
      "##◀": 2633,
      "##峴": 2634,
      "##縣": 2635,
      "##開": 2636,
      "##土": 2637,
      "##王": 2638,
      "##限": 2639,
      "##局": 2640,
      "##エ": 2641,
      "##ネ": 2642,
      "##ル": 2643,
      "##キ": 2644,
      "##ー": 2645,
      "##業": 2646,
      "##曰": 2647,
      "##如": 2648,
      "##見": 2649,
      "##端": 2650,
      "##惠": 2651,
      "##閏": 2652,
      "##景": 2653,
      "##🌱": 2654,
      "##🌜": 2655,
      "##喻": 2656,
      "##👏": 2657,
      "##👊": 2658,
      "##肉": 2659,
      "##樣": 2660,
      "##ع": 2661,
      "##د": 2662,
      "##孟": 2663,
      "##郡": 2664,
      "##懸": 2665,
      "##鈴": 2666,
      "##鼻": 2667,
      "##恆": 2668,
      "##過": 2669,
      "##災": 2670,
      "##ℓ": 2671,
      "##ي": 2672,
      "##ٔ": 2673,
      "##寨": 2674,
      "##溝": 2675,
      "##裝": 2676,
      "##哲": 2677,
      "##主": 2678,
      "##提": 2679,
      "##案": 2680,
      "##泰": 2681,
      "##燮": 2682,
      "##卦": 2683,
      "##〈": 2684,
      "##議": 2685,
      "##奉": 2686,
      "##吉": 2687,
      "##其": 2688,
      "##體": 2689,
      "##膚": 2690,
      "##溫": 2691,
      "##女": 2692,
      "##💨": 2693,
      "##💥": 2694,
      "##弊": 2695,
      "##̃": 2696,
      "##祖": 2697,
      "##親": 2698,
      "##攻": 2699,
      "##ㄻ": 2700,
      "##志": 2701,
      "##潟": 2702,
      "##記": 2703,
      "##述": 2704,
      "##は": 2705,
      "##く": 2706,
      "##ب": 2707,
      "##朴": 2708,
      "##ص": 2709,
      "##و": 2710,
      "##身": 2711,
      "##修": 2712,
      "##練": 2713,
      "##脫": 2714,
      "##自": 2715,
      "##%": 2716,
      "##申": 2717,
      "##五": 2718,
      "##賊": 2719,
      "##約": 2720,
      "##姜": 2721,
      "##孩": 2722,
      "##子": 2723,
      "##甲": 2724,
      "##潤": 2725,
      "##危": 2726,
      "##授": 2727,
      "##毅": 2728,
      "##宗": 2729,
      "##取": 2730,
      "##り": 2731,
      "##組": 2732,
      "##ん": 2733,
      "##た": 2734,
      "##し": 2735,
      "##ま": 2736,
      "##て": 2737,
      "##す": 2738,
      "##貨": 2739,
      "##】": 2740,
      "##務": 2741,
      "##陽": 2742,
      "##炳": 2743,
      "##遠": 2744,
      "##😣": 2745,
      "##⌜": 2746,
      "##孫": 2747,
      "##叔": 2748,
      "##敖": 2749,
      "##前": 2750,
      "##祐": 2751,
      "##植": 2752,
      "##說": 2753,
      "##舉": 2754,
      "##築": 2755,
      "##間": 2756,
      "##▣": 2757,
      "##們": 2758,
      "##忘": 2759,
      "##瑛": 2760,
      "##我": 2761,
      "##👿": 2762,
      "##※": 2763,
      "##格": 2764,
      "##🌳": 2765,
      "##多": 2766,
      "##才": 2767,
      "##害": 2768,
      "##÷": 2769,
      "##衛": 2770,
      "##亂": 2771,
      "##湜": 2772,
      "##證": 2773,
      "##詞": 2774,
      "##ε": 2775,
      "##χ": 2776,
      "##ν": 2777,
      "##η": 2778,
      "##↑": 2779,
      "##受": 2780,
      "##刊": 2781,
      "##春": 2782,
      "##ㅟ": 2783,
      "##■": 2784,
      "##̀": 2785,
      "##津": 2786,
      "##球": 2787,
      "##報": 2788,
      "##收": 2789,
      "##措": 2790,
      "##濟": 2791,
      "##世": 2792,
      "##界": 2793,
      "##妙": 2794,
      "##最": 2795,
      "##初": 2796,
      "##♂": 2797,
      "##♀": 2798,
      "##刑": 2799,
      "##縛": 2800,
      "##緖": 2801,
      "##鮮": 2802,
      "##少": 2803,
      "##）": 2804,
      "##烈": 2805,
      "##隆": 2806,
      "##皇": 2807,
      "##☆": 2808,
      "##≪": 2809,
      "##浩": 2810,
      "##形": 2811,
      "##س": 2812,
      "##ح": 2813,
      "##入": 2814,
      "##論": 2815,
      "##市": 2816,
      "##殖": 2817,
      "##願": 2818,
      "##ｍ": 2819,
      "##』": 2820,
      "##來": 2821,
      "##鹿": 2822,
      "##爲": 2823,
      "##馬": 2824,
      "##派": 2825,
      "##訴": 2826,
      "##天": 2827,
      "##州": 2828,
      "##慾": 2829,
      "##̂": 2830,
      "##力": 2831,
      "##投": 2832,
      "##到": 2833,
      "##何": 2834,
      "##龐": 2835,
      "##硏": 2836,
      "##究": 2837,
      "##所": 2838,
      "##獄": 2839,
      "##倉": 2840,
      "##院": 2841,
      "##宝": 2842,
      "##物": 2843,
      "##も": 2844,
      "##府": 2845,
      "##汀": 2846,
      "##🌏": 2847,
      "##🐒": 2848,
      "##疵": 2849,
      "##弦": 2850,
      "##更": 2851,
      "##張": 2852,
      "##缺": 2853,
      "##👎": 2854,
      "##再": 2855,
      "##迫": 2856,
      "##☞": 2857,
      "##▶": 2858,
      "##尊": 2859,
      "##讎": 2860,
      "##井": 2861,
      "##•": 2862,
      "##汚": 2863,
      "##吏": 2864,
      "##{": 2865,
      "##夷": 2866,
      "##制": 2867,
      "##德": 2868,
      "##欽": 2869,
      "##旭": 2870,
      "##庫": 2871,
      "##河": 2872,
      "##錢": 2873,
      "##用": 2874,
      "##😠": 2875,
      "##化": 2876,
      "##藥": 2877,
      "##製": 2878,
      "##劑": 2879,
      "##錫": 2880,
      "##|": 2881,
      "##⑫": 2882,
      "##傳": 2883,
      "##核": 2884,
      "##立": 2885,
      "##運": 2886,
      "##造": 2887,
      "##则": 2888,
      "##拂": 2889,
      "##士": 2890,
      "##１": 2891,
      "##７": 2892,
      "##♤": 2893,
      "##←": 2894,
      "##草": 2895,
      "##罰": 2896,
      "##勝": 2897,
      "##小": 2898,
      "##洞": 2899,
      "##擧": 2900,
      "##梁": 2901,
      "##高": 2902,
      "##麗": 2903,
      "##毒": 2904,
      "##症": 2905,
      "##帶": 2906,
      "##路": 2907,
      "##十": 2908,
      "##乐": 2909,
      "##ン": 2910,
      "##ャ": 2911,
      "##イ": 2912,
      "##累": 2913,
      "##閥": 2914,
      "##魁": 2915,
      "##績": 2916,
      "##©": 2917,
      "##隔": 2918,
      "##♥": 2919,
      "##理": 2920,
      "##昌": 2921,
      "##決": 2922,
      "##宰": 2923,
      "##移": 2924,
      "##衣": 2925,
      "##麤": 2926,
      "##裁": 2927,
      "##臣": 2928,
      "##賢": 2929,
      "##❶": 2930,
      "##明": 2931,
      "##能": 2932,
      "##剛": 2933,
      "##則": 2934,
      "##田": 2935,
      "##介": 2936,
      "##炫": 2937,
      "##宇": 2938,
      "##華": 2939,
      "##慶": 2940,
      "##鍼": 2941,
      "##惻": 2942,
      "##慇": 2943,
      "##質": 2944,
      "##寒": 2945,
      "##菊": 2946,
      "##㈜": 2947,
      "##醒": 2948,
      "##骨": 2949,
      "##比": 2950,
      "##翊": 2951,
      "##熙": 2952,
      "##柳": 2953,
      "##勳": 2954,
      "##室": 2955,
      "##嫁": 2956,
      "##洸": 2957,
      "##瑥": 2958,
      "##讀": 2959,
      "##擇": 2960,
      "##😢": 2961,
      "##💕": 2962,
      "##舟": 2963,
      "##答": 2964,
      "##辯": 2965,
      "##六": 2966,
      "##さ": 2967,
      "##れ": 2968,
      "##電": 2969,
      "##視": 2970,
      "##婦": 2971,
      "##⭐": 2972,
      "##辭": 2973,
      "##僕": 2974,
      "##耳": 2975,
      "##稅": 2976,
      "##燦": 2977,
      "##秉": 2978,
      "##浣": 2979,
      "##識": 2980,
      "##綱": 2981,
      "##目": 2982,
      "##ى": 2983,
      "##&": 2984,
      "##表": 2985,
      "##↓": 2986,
      "##龍": 2987,
      "##網": 2988,
      "##ㅑ": 2989,
      "##索": 2990,
      "##引": 2991,
      "##舌": 2992,
      "##⓸": 2993,
      "##卯": 2994,
      "##ض": 2995,
      "##榮": 2996,
      "##🔴": 2997,
      "##👋": 2998,
      "##員": 2999,
      "##別": 3000,
      "##阿": 3001,
      "##村": 3002,
      "##已": 3003,
      "##敢": 3004,
      "##糞": 3005,
      "##賴": 3006,
      "##ಠ": 3007,
      "##血": 3008,
      "##鬼": 3009,
      "##鼓": 3010,
      "##ⓒ": 3011,
      "##益": 3012,
      "##完": 3013,
      "##⑴": 3014,
      "##ㅍ": 3015,
      "##陪": 3016,
      "##衆": 3017,
      "##交": 3018,
      "##通": 3019,
      "##亞": 3020,
      "##狄": 3021,
      "##邦": 3022,
      "##尙": 3023,
      "##垢": 3024,
      "##護": 3025,
      "##ᐧ": 3026,
      "##房": 3027,
      "##與": 3028,
      "##澱": 3029,
      "##😥": 3030,
      "##": 3031,
      "##玄": 3032,
      "##江": 3033,
      "##堰": 3034,
      "##價": 3035,
      "##溶": 3036,
      "##璿": 3037,
      "##￦": 3038,
      "##５": 3039,
      "##ج": 3040,
      "##拯": 3041,
      "##集": 3042,
      "##宣": 3043,
      "##據": 3044,
      "##封": 3045,
      "##南": 3046,
      "##恥": 3047,
      "##認": 3048,
      "##∎": 3049,
      "##●": 3050,
      "##兮": 3051,
      "##款": 3052,
      "##審": 3053,
      "##判": 3054,
      "##樹": 3055,
      "##步": 3056,
      "##ㅢ": 3057,
      "##培": 3058,
      "##→": 3059,
      "##━": 3060,
      "##┑": 3061,
      "##將": 3062,
      "##軍": 3063,
      "##風": 3064,
      "##擅": 3065,
      "##度": 3066,
      "##笔": 3067,
      "##夫": 3068,
      "##倍": 3069,
      "##晋": 3070,
      "##爵": 3071,
      "##止": 3072,
      "##全": 3073,
      "##｛": 3074,
      "##な": 3075,
      "##供": 3076,
      "##給": 3077,
      "##と": 3078,
      "##価": 3079,
      "##騰": 3080,
      "##お": 3081,
      "##こ": 3082,
      "##課": 3083,
      "##愛": 3084,
      "##席": 3085,
      "##覇": 3086,
      "##鐘": 3087,
      "##嫚": 3088,
      "##久": 3089,
      "##割": 3090,
      "##歌": 3091,
      "##⑥": 3092,
      "##防": 3093,
      "##未": 3094,
      "##屋": 3095,
      "##【": 3096,
      "##任": 3097,
      "##驕": 3098,
      "##去": 3099,
      "##😨": 3100,
      "##遜": 3101,
      "##類": 3102,
      "##百": 3103,
      "##科": 3104,
      "##月": 3105,
      "##盈": 3106,
      "##仄": 3107,
      "##繼": 3108,
      "##浦": 3109,
      "##光": 3110,
      "##滨": 3111,
      "##花": 3112,
      "##园": 3113,
      "##計": 3114,
      "##画": 3115,
      "##利": 3116,
      "##熱": 3117,
      "##男": 3118,
      "##ㄸ": 3119,
      "##郊": 3120,
      "##ㅆ": 3121,
      "##指": 3122,
      "##紋": 3123,
      "##耀": 3124,
      "##ㅘ": 3125,
      "##⑾": 3126,
      "##⑿": 3127,
      "##善": 3128,
      "##敵": 3129,
      "##⌟": 3130,
      "##魄": 3131,
      "##⁾": 3132,
      "##顯": 3133,
      "##栽": 3134,
      "##想": 3135,
      "##突": 3136,
      "##卵": 3137,
      "##㎥": 3138,
      "##技": 3139,
      "##武": 3140,
      "##坤": 3141,
      "##擬": 3142,
      "##銃": 3143,
      "##砲": 3144,
      "##ｉ": 3145,
      "##ｘ": 3146,
      "##ａ": 3147,
      "##ｎ": 3148,
      "##槿": 3149,
      "##き": 3150,
      "##影": 3151,
      "##𧬰": 3152,
      "##を": 3153,
      "##与": 3154,
      "##え": 3155,
      "##夜": 3156,
      "##粉": 3157,
      "##件": 3158,
      "##≒": 3159,
      "##◇": 3160,
      "##企": 3161,
      "##み": 3162,
      "##ｐ": 3163,
      "##ｏ": 3164,
      "##ｒ": 3165,
      "##ｌ": 3166,
      "##ｖ": 3167,
      "##服": 3168,
      "##新": 3169,
      "##ㅕ": 3170,
      "##賈": 3171,
      "##🐭": 3172,
      "##🐍": 3173,
      "##紀": 3174,
      "##勢": 3175,
      "##使": 3176,
      "##賀": 3177,
      "##進": 3178,
      "##敏": 3179,
      "##盛": 3180,
      "##首": 3181,
      "##▼": 3182,
      "##射": 3183,
      "##式": 3184,
      "##惑": 3185,
      "##秋": 3186,
      "##朝": 3187,
      "##半": 3188,
      "##島": 3189,
      "##る": 3190,
      "##髮": 3191,
      "##‎": 3192,
      "##私": 3193,
      "##忽": 3194,
      "##然": 3195,
      "##習": 3196,
      "##今": 3197,
      "##量": 3198,
      "##買": 3199,
      "##秀": 3200,
      "##玟": 3201,
      "##禁": 3202,
      "##忌": 3203,
      "##ⅰ": 3204,
      "##先": 3205,
      "##錄": 3206,
      "##仙": 3207,
      "##樓": 3208,
      "##起": 3209,
      "##💗": 3210,
      "##💓": 3211,
      "##👍": 3212,
      "##空": 3213,
      "##壓": 3214,
      "##戌": 3215,
      "##肖": 3216,
      "##炯": 3217,
      "##洙": 3218,
      "##∼": 3219,
      "##ⅲ": 3220,
      "##白": 3221,
      "##冠": 3222,
      "##▲": 3223,
      "##色": 3224,
      "##回": 3225,
      "##例": 3226,
      "##😍": 3227,
      "##碩": 3228,
      "##柱": 3229,
      "##😯": 3230,
      "##💖": 3231,
      "##丙": 3232,
      "##燾": 3233,
      "##驻": 3234,
      "##馆": 3235,
      "##犬": 3236,
      "##犯": 3237,
      "##刻": 3238,
      "##乞": 3239,
      "##城": 3240,
      "##乏": 3241,
      "##握": 3242,
      "##ρ": 3243,
      "##α": 3244,
      "##μ": 3245,
      "##τ": 3246,
      "##ι": 3247,
      "##κ": 3248,
      "##ラ": 3249,
      "##ト": 3250,
      "##設": 3251,
      "##改": 3252,
      "##期": 3253,
      "##➂": 3254,
      "##寫": 3255,
      "##◈": 3256,
      "##錐": 3257,
      "##­": 3258,
      "##♣": 3259,
      "##次": 3260,
      "##瓚": 3261,
      "##酷": 3262,
      "##汇": 3263,
      "##〕": 3264,
      "##落": 3265,
      "##師": 3266,
      "##邑": 3267,
      "##戶": 3268,
      "##ﻬ": 3269,
      "##純": 3270,
      "##̛": 3271,
      "##籍": 3272,
      "##»": 3273,
      "##匙": 3274,
      "##飯": 3275,
      "##尖": 3276,
      "##吴": 3277,
      "##夏": 3278,
      "##貝": 3279,
      "##略": 3280,
      "##額": 3281,
      "##承": 3282,
      "##精": 3283,
      "##淵": 3284,
      "##🍒": 3285,
      "##齊": 3286,
      "##菱": 3287,
      "##吊": 3288,
      "##問": 3289,
      "##尹": 3290,
      "##➀": 3291,
      "##姙": 3292,
      "##失": 3293,
      "##眾": 3294,
      "##福": 3295,
      "##誣": 3296,
      "##＊": 3297,
      "##º": 3298,
      "##｢": 3299,
      "##垠": 3300,
      "##希": 3301,
      "##聲": 3302,
      "##谷": 3303,
      "##ㅗ": 3304,
      "##処": 3305,
      "##急": 3306,
      "##広": 3307,
      "##坎": 3308,
      "##離": 3309,
      "##辱": 3310,
      "##脂": 3311,
      "##僞": 3312,
      "##愼": 3313,
      "##弔": 3314,
      "##ة": 3315,
      "##龜": 3316,
      "##根": 3317,
      "##助": 3318,
      "##∝": 3319,
      "##塚": 3320,
      "##極": 3321,
      "##愚": 3322,
      "##徵": 3323,
      "##布": 3324,
      "##沃": 3325,
      "##律": 3326,
      "##臨": 3327,
      "##銅": 3328,
      "##漏": 3329,
      "##姓": 3330,
      "##̣": 3331,
      "##傷": 3332,
      "##辰": 3333,
      "##勿": 3334,
      "##炅": 3335,
      "##俠": 3336,
      "##庸": 3337,
      "##寬": 3338,
      "##❷": 3339,
      "##‏": 3340,
      "##始": 3341,
      "##雄": 3342,
      "##北": 3343,
      "##點": 3344,
      "##京": 3345,
      "##都": 3346,
      "##豊": 3347,
      "##池": 3348,
      "##袋": 3349,
      "##町": 3350,
      "##産": 3351,
      "##闢": 3352,
      "##＂": 3353,
      "##構": 3354,
      "##😲": 3355,
      "##揮": 3356,
      "##種": 3357,
      "##妾": 3358,
      "##向": 3359,
      "##？": 3360,
      "##為": 3361,
      "##舜": 3362,
      "##着": 3363,
      "##邪": 3364,
      "##圳": 3365,
      "##農": 3366,
      "##経": 3367,
      "##鎬": 3368,
      "##‧": 3369,
      "##境": 3370,
      "##盤": 3371,
      "##遂": 3372,
      "##玉": 3373,
      "##珠": 3374,
      "##術": 3375,
      "##幹": 3376,
      "##露": 3377,
      "##苑": 3378,
      "##・": 3379,
      "##´": 3380,
      "##千": 3381,
      "##蠻": 3382,
      "##竊": 3383,
      "##右": 3384,
      "##勞": 3385,
      "##鬲": 3386,
      "##魚": 3387,
      "##鹽": 3388,
      "##元": 3389,
      "##๑": 3390,
      "##葉": 3391,
      "##題": 3392,
      "##團": 3393,
      "##‬": 3394,
      "##晟": 3395,
      "##皓": 3396,
      "##獺": 3397,
      "##需": 3398,
      "##増": 3399,
      "##乱": 3400,
      "##獲": 3401,
      "##め": 3402,
      "##効": 3403,
      "##あ": 3404,
      "##登": 3405,
      "##淸": 3406,
      "##妃": 3407,
      "##蔽": 3408,
      "##藏": 3409,
      "##त": 3410,
      "##्": 3411,
      "##य": 3412,
      "##ा": 3413,
      "##ग": 3414,
      "##र": 3415,
      "##ह": 3416,
      "##拉": 3417,
      "##廉": 3418,
      "##荷": 3419,
      "##歷": 3420,
      "##況": 3421,
      "##彈": 3422,
      "##因": 3423,
      "##😵": 3424,
      "##擔": 3425,
      "##苗": 3426,
      "##擊": 3427,
      "##蹄": 3428,
      "##占": 3429,
      "##建": 3430,
      "##碑": 3431,
      "##◐": 3432,
      "##創": 3433,
      "##背": 3434,
      "##反": 3435,
      "##尽": 3436,
      "##◊": 3437,
      "##彩": 3438,
      "##閑": 3439,
      "##筋": 3440,
      "##工": 3441,
      "##程": 3442,
      "##調": 3443,
      "##⑷": 3444,
      "##⑸": 3445,
      "##求": 3446,
      "##腦": 3447,
      "##圖": 3448,
      "##沈": 3449,
      "##～": 3450,
      "##󰡓": 3451,
      "##模": 3452,
      "##範": 3453,
      "##🤮": 3454,
      "##峽": 3455,
      "##木": 3456,
      "##革": 3457,
      "##休": 3458,
      "##歎": 3459,
      "##🎑": 3460,
      "##憤": 3461,
      "##虐": 3462,
      "##階": 3463,
      "##涵": 3464,
      "##養": 3465,
      "##節": 3466,
      "##廳": 3467,
      "##策": 3468,
      "##！": 3469,
      "##賣": 3470,
      "##渡": 3471,
      "##█": 3472,
      "##參": 3473,
      "##拳": 3474,
      "##紅": 3475,
      "##富": 3476,
      "##思": 3477,
      "##癖": 3478,
      "##排": 3479,
      "##奪": 3480,
      "##品": 3481,
      "##遇": 3482,
      "##札": 3483,
      "##わ": 3484,
      "##試": 3485,
      "##錯": 3486,
      "##誤": 3487,
      "##感": 3488,
      "##▩": 3489,
      "##󰋯": 3490,
      "##＼": 3491,
      "##д": 3492,
      "##役": 3493,
      "##🙋": 3494,
      "##醫": 3495,
      "##灸": 3496,
      "##常": 3497,
      "##難": 3498,
      "##補": 3499,
      "##兇": 3500,
      "##碎": 3501,
      "##😁": 3502,
      "##〉": 3503,
      "##盡": 3504,
      "##甘": 3505,
      "##償": 3506,
      "##崧": 3507,
      "##板": 3508,
      "##撑": 3509,
      "##窟": 3510,
      "##💝": 3511,
      "##僚": 3512,
      "##棄": 3513,
      "##隱": 3514,
      "##吾": 3515,
      "##忠": 3516,
      "##ث": 3517,
      "##齒": 3518,
      "##奈": 3519,
      "##域": 3520,
      "##爭": 3521,
      "##琫": 3522,
      "##門": 3523,
      "##▷": 3524,
      "##辜": 3525,
      "##е": 3526,
      "##р": 3527,
      "##и": 3528,
      "##в": 3529,
      "##斧": 3530,
      "##疏": 3531,
      "##◆": 3532,
      "##碍": 3533,
      "##旦": 3534,
      "##弄": 3535,
      "##陛": 3536,
      "##万": 3537,
      "##歳": 3538,
      "##斷": 3539,
      "##萬": 3540,
      "##操": 3541,
      "##彿": 3542,
      "##乙": 3543,
      "##巳": 3544,
      "##🍕": 3545,
      "##罔": 3546,
      "##降": 3547,
      "##環": 3548,
      "##へ": 3549,
      "##団": 3550,
      "##廷": 3551,
      "##献": 3552,
      "##持": 3553,
      "##ち": 3554,
      "##込": 3555,
      "##捋": 3556,
      "##群": 3557,
      "##貴": 3558,
      "##署": 3559,
      "##狀": 3560,
      "##現": 3561,
      "##象": 3562,
      "##庠": 3563,
      "##☏": 3564,
      "##榕": 3565,
      "##禛": 3566,
      "##😃": 3567,
      "##😄": 3568,
      "##璘": 3569,
      "##羅": 3570,
      "##戎": 3571,
      "##胤": 3572,
      "##ｃ": 3573,
      "##ｄ": 3574,
      "##邊": 3575,
      "##疆": 3576,
      "##む": 3577,
      "##對": 3578,
      "##念": 3579,
      "##❤": 3580,
      "##―": 3581,
      "##陰": 3582,
      "##寃": 3583,
      "##里": 3584,
      "##奚": 3585,
      "##◑": 3586,
      "##坦": 3587,
      "##懷": 3588,
      "##仕": 3589,
      "##流": 3590,
      "##眼": 3591,
      "##原": 3592,
      "##庚": 3593,
      "##顧": 3594,
      "##、": 3595,
      "##冶": 3596,
      "##效": 3597,
      "##鳥": 3598,
      "##ᅠ": 3599,
      "##退": 3600,
      "##獨": 3601,
      "##颉": 3602,
      "##口": 3603,
      "##簽": 3604,
      "##丁": 3605,
      "##忍": 3606,
      "##畎": 3607,
      "##畝": 3608,
      "##郞": 3609,
      "##⓹": 3610,
      "##轉": 3611,
      "##僉": 3612,
      "##肅": 3613,
      "##奏": 3614,
      "##商": 3615,
      "##蓋": 3616,
      "##魂": 3617,
      "##や": 3618,
      "##詳": 3619,
      "##踊": 3620,
      "##鄕": 3621,
      "##🤗": 3622,
      "##早": 3623,
      "##喪": 3624,
      "##🎈": 3625,
      "##個": 3626,
      "##😮": 3627,
      "##懼": 3628,
      "##謀": 3629,
      "##吸": 3630,
      "##委": 3631,
      "##拼": 3632,
      "##鎭": 3633,
      "##筏": 3634,
      "##鐵": 3635,
      "##館": 3636,
      "##督": 3637,
      "##舒": 3638,
      "##施": 3639,
      "##乎": 3640,
      "##薇": 3641,
      "##垣": 3642,
      "##盜": 3643,
      "##🖕": 3644,
      "##🏿": 3645,
      "##😀": 3646,
      "##聖": 3647,
      "##奸": 3648,
      "##送": 3649,
      "##靑": 3650,
      "##◁": 3651,
      "##毁": 3652,
      "##読": 3653,
      "##이": 3654,
      "##ᅳᆯ": 3655,
      "##ᅳᆫ": 3656,
      "##ᅡᆫ": 3657,
      "##다": 3658,
      "##는": 3659,
      "##니": 3660,
      "##하": 3661,
      "이": 3662,
      "##고": 3663,
      "##ᆸ니": 3664,
      "##지": 3665,
      "##을": 3666,
      "##에": 3667,
      "##ᆸ니다": 3668,
      "##가": 3669,
      "##ᅡᆼ": 3670,
      "##ᅥᆫ": 3671,
      "##ᅥᆼ": 3672,
      "##ᅧᆫ": 3673,
      "##로": 3674,
      "##시": 3675,
      "##도": 3676,
      "##의": 3677,
      "##ᅡᆯ": 3678,
      "##ᅧᆼ": 3679,
      "##해": 3680,
      "##어": 3681,
      "##서": 3682,
      "##ᅮᆫ": 3683,
      "##한": 3684,
      "##은": 3685,
      "##ᅮᆨ": 3686,
      "##들": 3687,
      "##라": 3688,
      "##를": 3689,
      "##스": 3690,
      "##리": 3691,
      "하": 3692,
      "##으": 3693,
      "##요": 3694,
      "##ᅯᆫ": 3695,
      "##ᅩᆼ": 3696,
      "아": 3697,
      "##기": 3698,
      "##게": 3699,
      "##ᅵᆫ": 3700,
      "##ᅮᆯ": 3701,
      "있": 3702,
      "##인": 3703,
      "그": 3704,
      "##자": 3705,
      "가": 3706,
      "##습니다": 3707,
      "어": 3708,
      "사": 3709,
      "##사": 3710,
      "##ᅢᆼ": 3711,
      "##과": 3712,
      "##원": 3713,
      "##저": 3714,
      "지": 3715,
      "##ᅩᆨ": 3716,
      "대": 3717,
      "##나": 3718,
      "##면": 3719,
      "거": 3720,
      "##주": 3721,
      "##으로": 3722,
      "##아": 3723,
      "##만": 3724,
      "시": 3725,
      "##그": 3726,
      "##여": 3727,
      "##정": 3728,
      "##야": 3729,
      "##부": 3730,
      "##ᅳᆼ": 3731,
      "##ᅥᆸ": 3732,
      "##거": 3733,
      "##려": 3734,
      "##대": 3735,
      "##되": 3736,
      "보": 3737,
      "수": 3738,
      "국": 3739,
      "##민": 3740,
      "저": 3741,
      "정": 3742,
      "주": 3743,
      "##화": 3744,
      "##에서": 3745,
      "나": 3746,
      "##제": 3747,
      "##ᅥᆷ": 3748,
      "##상": 3749,
      "바": 3750,
      "마": 3751,
      "##수": 3752,
      "##적": 3753,
      "##ᅩᆫ": 3754,
      "##국": 3755,
      "##무": 3756,
      "##장": 3757,
      "해": 3758,
      "##하고": 3759,
      "부": 3760,
      "기": 3761,
      "자": 3762,
      "다": 3763,
      "##하는": 3764,
      "모": 3765,
      "것": 3766,
      "##까": 3767,
      "##입니다": 3768,
      "제": 3769,
      "##년": 3770,
      "되": 3771,
      "##금": 3772,
      "##세": 3773,
      "##ᆻ습니다": 3774,
      "한": 3775,
      "없": 3776,
      "##ᅢᆨ": 3777,
      "일": 3778,
      "##유": 3779,
      "##용": 3780,
      "##합니다": 3781,
      "##치": 3782,
      "##소": 3783,
      "##러": 3784,
      "##ᅧᆯ": 3785,
      "##보": 3786,
      "##데": 3787,
      "경": 3788,
      "생": 3789,
      "##일": 3790,
      "조": 3791,
      "##와": 3792,
      "##성": 3793,
      "공": 3794,
      "##법": 3795,
      "전": 3796,
      "##ᅥᆯ": 3797,
      "##회": 3798,
      "##각": 3799,
      "##전": 3800,
      "위": 3801,
      "않": 3802,
      "안": 3803,
      "인": 3804,
      "고": 3805,
      "##들이": 3806,
      "과": 3807,
      "##생": 3808,
      "국민": 3809,
      "##드": 3810,
      "여": 3811,
      "##행": 3812,
      "##며": 3813,
      "##구": 3814,
      "##다고": 3815,
      "##조": 3816,
      "##문": 3817,
      "..": 3818,
      "미": 3819,
      "##간": 3820,
      "##업": 3821,
      "##통": 3822,
      "##우": 3823,
      "##재": 3824,
      "아니": 3825,
      "##신": 3826,
      "##하여": 3827,
      "무": 3828,
      "##할": 3829,
      "##히": 3830,
      "##동": 3831,
      "청": 3832,
      "있는": 3833,
      "##건": 3834,
      "##실": 3835,
      "오": 3836,
      "##것": 3837,
      "##명": 3838,
      "##바": 3839,
      "##산": 3840,
      "피": 3841,
      "##람": 3842,
      "##마": 3843,
      "생각": 3844,
      "대한": 3845,
      "##관": 3846,
      "상": 3847,
      "있습니다": 3848,
      "우": 3849,
      "##래": 3850,
      "문": 3851,
      "도": 3852,
      "##ᆨ을": 3853,
      "소": 3854,
      "##교": 3855,
      "##차": 3856,
      "내": 3857,
      "##지만": 3858,
      "법": 3859,
      "화": 3860,
      "##위": 3861,
      "##당": 3862,
      "##비": 3863,
      "##계": 3864,
      "##분": 3865,
      "##에게": 3866,
      "의": 3867,
      "##런": 3868,
      "불": 3869,
      "현": 3870,
      "비": 3871,
      "##안": 3872,
      "많": 3873,
      "##체": 3874,
      "##직": 3875,
      "말": 3876,
      "개": 3877,
      "##하게": 3878,
      "##다는": 3879,
      "##세요": 3880,
      "##르": 3881,
      "차": 3882,
      "만": 3883,
      "##ᆷ을": 3884,
      "##력": 3885,
      "중": 3886,
      "사람": 3887,
      "받": 3888,
      "##이라": 3889,
      "##호": 3890,
      "##찰": 3891,
      "##ᅣᆼ": 3892,
      "##령": 3893,
      "노": 3894,
      "##급": 3895,
      "##죄": 3896,
      "##워": 3897,
      "더": 3898,
      "##터": 3899,
      "##학": 3900,
      "관": 3901,
      "20": 3902,
      "##권": 3903,
      "##ᆸ니까": 3904,
      "##공": 3905,
      "처": 3906,
      "합니다": 3907,
      "##었": 3908,
      "##해서": 3909,
      "##모": 3910,
      "유": 3911,
      "##방": 3912,
      "##단": 3913,
      "세": 3914,
      "##진": 3915,
      "못": 3916,
      "##청": 3917,
      "##들은": 3918,
      "##오": 3919,
      "##들의": 3920,
      "##등": 3921,
      "##된": 3922,
      "우리": 3923,
      "하는": 3924,
      "학": 3925,
      "##ᆷ이": 3926,
      "##내": 3927,
      "##번": 3928,
      "##록": 3929,
      "##선": 3930,
      "##경": 3931,
      "##--": 3932,
      "교": 3933,
      "또": 3934,
      "##ᇂ게": 3935,
      "##트": 3936,
      "##중": 3937,
      "살": 3938,
      "할": 3939,
      "##ᅥᆷ죄": 3940,
      "등": 3941,
      "##통령": 3942,
      "##폐": 3943,
      "같": 3944,
      "신": 3945,
      "동": 3946,
      "##님": 3947,
      "실": 3948,
      "강": 3949,
      "##속": 3950,
      "##처": 3951,
      "##적으로": 3952,
      "반": 3953,
      "##험": 3954,
      "##식": 3955,
      "##ᅧᆨ": 3956,
      "##발": 3957,
      "요": 3958,
      "진": 3959,
      "##든": 3960,
      "때": 3961,
      "서": 3962,
      "정부": 3963,
      "구": 3964,
      "적": 3965,
      "당": 3966,
      "##까지": 3967,
      "발": 3968,
      "방": 3969,
      "##민국": 3970,
      "##있": 3971,
      "##미": 3972,
      "경찰": 3973,
      "성": 3974,
      "##음": 3975,
      "재": 3976,
      "##리고": 3977,
      "대한민국": 3978,
      "그러": 3979,
      "##개": 3980,
      "선": 3981,
      "알": 3982,
      "##물": 3983,
      "##ᅳᆨ": 3984,
      "##는데": 3985,
      "##연": 3986,
      "##료": 3987,
      "##말": 3988,
      "너": 3989,
      "##했": 3990,
      "##른": 3991,
      "##ᅳᆷ": 3992,
      "##적인": 3993,
      "##책": 3994,
      "##운": 3995,
      "##들을": 3996,
      "##던": 3997,
      "국가": 3998,
      "민": 3999,
      "남": 4000,
      "##타": 4001,
      "##월": 4002,
      "...": 4003,
      "##으면": 4004,
      "대통령": 4005,
      "##하지": 4006,
      "결": 4007,
      "아이": 4008,
      "##ᅵᆷ": 4009,
      "분": 4010,
      "연": 4011,
      "##두": 4012,
      "들": 4013,
      "행": 4014,
      "통": 4015,
      "##없": 4016,
      "##키": 4017,
      "##출": 4018,
      "최": 4019,
      "원": 4020,
      "##00": 4021,
      "##역": 4022,
      "##임": 4023,
      "출": 4024,
      "장": 4025,
      "문제": 4026,
      "범죄": 4027,
      "지금": 4028,
      "피해": 4029,
      "것이": 4030,
      "##주세요": 4031,
      "올": 4032,
      "##육": 4033,
      "감": 4034,
      "하고": 4035,
      "계": 4036,
      "##해야": 4037,
      "##하면": 4038,
      "##다면": 4039,
      "##벌": 4040,
      "따": 4041,
      "폐": 4042,
      "이런": 4043,
      "##심": 4044,
      "##때": 4045,
      "잘": 4046,
      "건": 4047,
      "##영": 4048,
      "##더": 4049,
      "##련": 4050,
      "##라고": 4051,
      "근": 4052,
      "##대로": 4053,
      "##반": 4054,
      "##도록": 4055,
      "입": 4056,
      "위해": 4057,
      "집": 4058,
      "##결": 4059,
      "##겠": 4060,
      "##질": 4061,
      "직": 4062,
      "추": 4063,
      "너무": 4064,
      "##능": 4065,
      "저는": 4066,
      "##입": 4067,
      "나라": 4068,
      "단": 4069,
      "##박": 4070,
      "##울": 4071,
      "##네": 4072,
      "투": 4073,
      "매": 4074,
      "이러": 4075,
      "##피": 4076,
      "청원": 4077,
      "##론": 4078,
      "생각합니다": 4079,
      "##었습니다": 4080,
      "##패": 4081,
      "##혀": 4082,
      "##루": 4083,
      "##족": 4084,
      "##져": 4085,
      "##린": 4086,
      "필": 4087,
      "평": 4088,
      "만들": 4089,
      "야": 4090,
      "그리고": 4091,
      "심": 4092,
      "##라는": 4093,
      "##부터": 4094,
      "##류": 4095,
      "어ᄄ": 4096,
      "##복": 4097,
      "##약": 4098,
      "##본": 4099,
      "10": 4100,
      "201": 4101,
      "##준": 4102,
      "예": 4103,
      "##설": 4104,
      "##태": 4105,
      "##주시": 4106,
      "물": 4107,
      "많은": 4108,
      "영": 4109,
      "##럼": 4110,
      "##이나": 4111,
      "##난": 4112,
      "##셔": 4113,
      "##근": 4114,
      "그런": 4115,
      "##립니다": 4116,
      "##택": 4117,
      "회": 4118,
      "돈": 4119,
      "##디": 4120,
      "##들에게": 4121,
      "청소": 4122,
      "금": 4123,
      "사회": 4124,
      "본": 4125,
      "##후": 4126,
      "##격": 4127,
      "##상화": 4128,
      "현재": 4129,
      "왜": 4130,
      "없는": 4131,
      "특": 4132,
      "##에는": 4133,
      "경우": 4134,
      "청소년": 4135,
      "##에도": 4136,
      "##증": 4137,
      "##하기": 4138,
      "##작": 4139,
      "외": 4140,
      "및": 4141,
      "##매": 4142,
      "##어야": 4143,
      "##----": 4144,
      "##ᅥᆨ": 4145,
      "##..": 4146,
      "필요": 4147,
      "##버": 4148,
      "##양": 4149,
      "##표": 4150,
      "부패": 4151,
      "##되는": 4152,
      "##노": 4153,
      "##받": 4154,
      "때문": 4155,
      "와": 4156,
      "##ᆸ시": 4157,
      "##기를": 4158,
      "##천": 4159,
      "##면서": 4160,
      "##파": 4161,
      "##판": 4162,
      "##점": 4163,
      "##희": 4164,
      "드": 4165,
      "##켜": 4166,
      "##종": 4167,
      "##감": 4168,
      "것입니다": 4169,
      "판": 4170,
      "##하며": 4171,
      "부패한": 4172,
      "##테": 4173,
      "간": 4174,
      "폐지": 4175,
      "##탁": 4176,
      "##애": 4177,
      "##형": 4178,
      "##께": 4179,
      "##활": 4180,
      "##군": 4181,
      "운": 4182,
      "아닌": 4183,
      "누": 4184,
      "민원": 4185,
      "##나라": 4186,
      "두": 4187,
      "##규": 4188,
      "##았": 4189,
      "확": 4190,
      "##절": 4191,
      "##이고": 4192,
      "##란": 4193,
      "임": 4194,
      "했": 4195,
      "##달": 4196,
      "##어서": 4197,
      "모든": 4198,
      "이유": 4199,
      "사건": 4200,
      "##사를": 4201,
      "또한": 4202,
      "##같": 4203,
      "##송": 4204,
      "##만원": 4205,
      "규": 4206,
      "가상화": 4207,
      "약": 4208,
      "북": 4209,
      "하여": 4210,
      "배": 4211,
      "여성": 4212,
      "##자가": 4213,
      "하지만": 4214,
      "맞": 4215,
      "없습니다": 4216,
      "군": 4217,
      "정말": 4218,
      "힘": 4219,
      "##죠": 4220,
      "##지고": 4221,
      "한국": 4222,
      "같은": 4223,
      "##외": 4224,
      "가상화폐": 4225,
      "##으며": 4226,
      "좋": 4227,
      "다른": 4228,
      "##망": 4229,
      "후": 4230,
      "불법": 4231,
      "##순": 4232,
      "##황": 4233,
      "바라": 4234,
      "##재인": 4235,
      "##술": 4236,
      "##길": 4237,
      "취": 4238,
      "처벌": 4239,
      "##항": 4240,
      "##살": 4241,
      "파": 4242,
      "문재인": 4243,
      "##량": 4244,
      "##무원": 4245,
      "초": 4246,
      "김": 4247,
      "##ᅳ로": 4248,
      "##집": 4249,
      "참": 4250,
      "##못": 4251,
      "것은": 4252,
      "##강": 4253,
      "학생": 4254,
      "##별": 4255,
      "제가": 4256,
      "사용": 4257,
      "에": 4258,
      "치": 4259,
      "##하시": 4260,
      "##변": 4261,
      "##겨": 4262,
      "정책": 4263,
      "위한": 4264,
      "이상": 4265,
      "##녀": 4266,
      "명": 4267,
      "##라도": 4268,
      "##지는": 4269,
      "포": 4270,
      "된": 4271,
      "언": 4272,
      "##토": 4273,
      "##포": 4274,
      "따라": 4275,
      "설": 4276,
      "##환": 4277,
      "다시": 4278,
      "##기에": 4279,
      "##배": 4280,
      "엄": 4281,
      "##드립니다": 4282,
      "검": 4283,
      "저희": 4284,
      "##병": 4285,
      "##함": 4286,
      "##북": 4287,
      "##것이": 4288,
      "##보다": 4289,
      "될": 4290,
      "##까요": 4291,
      "교육": 4292,
      "스": 4293,
      "대통령님": 4294,
      "학교": 4295,
      "##있는": 4296,
      "많이": 4297,
      "##!!": 4298,
      "싶": 4299,
      "##합": 4300,
      "형": 4301,
      "##않": 4302,
      "지원": 4303,
      "##림": 4304,
      "##되어": 4305,
      "상황": 4306,
      "##이라고": 4307,
      "하나": 4308,
      "입니다": 4309,
      "해야": 4310,
      "넘": 4311,
      "며": 4312,
      "들어": 4313,
      "환": 4314,
      "병": 4315,
      "##시간": 4316,
      "하지": 4317,
      "부탁": 4318,
      "##네요": 4319,
      "글": 4320,
      "작": 4321,
      "##습니까": 4322,
      "##에서는": 4323,
      "##ᆨ이": 4324,
      "주시": 4325,
      "절": 4326,
      "##거나": 4327,
      "##추": 4328,
      "##인이": 4329,
      "권": 4330,
      "관련": 4331,
      "답": 4332,
      "##불": 4333,
      "어떠": 4334,
      "##리는": 4335,
      "##푸": 4336,
      "줄": 4337,
      "목": 4338,
      "북한": 4339,
      "우리나라": 4340,
      "바랍니다": 4341,
      "모르": 4342,
      "열": 4343,
      "않고": 4344,
      "보호": 4345,
      "##들도": 4346,
      "증": 4347,
      "책": 4348,
      "라": 4349,
      "폭": 4350,
      "죽": 4351,
      "아무": 4352,
      "##현": 4353,
      "아니라": 4354,
      "사실": 4355,
      "때문에": 4356,
      "앞": 4357,
      "##이라는": 4358,
      "##됩니다": 4359,
      "각": 4360,
      "그래": 4361,
      "모두": 4362,
      "##아가": 4363,
      "변": 4364,
      "시간": 4365,
      "##편": 4366,
      "존": 4367,
      "이렇게": 4368,
      "않는": 4369,
      "벌": 4370,
      "##립": 4371,
      "거래": 4372,
      "##리를": 4373,
      "##되고": 4374,
      "##폭": 4375,
      "##처럼": 4376,
      "##ᅯᆯ": 4377,
      "타": 4378,
      "얼": 4379,
      "##ᅦ이": 4380,
      "##견": 4381,
      "업": 4382,
      "허": 4383,
      "몇": 4384,
      "버": 4385,
      "복": 4386,
      "쓰": 4387,
      "공무원": 4388,
      "것을": 4389,
      "##학교": 4390,
      "어려": 4391,
      "##가요": 4392,
      "만들어": 4393,
      "돌": 4394,
      "양": 4395,
      "피해자": 4396,
      "##평": 4397,
      "##ᆻ다": 4398,
      "받아": 4399,
      "##남": 4400,
      "##==": 4401,
      "혀": 4402,
      "##날": 4403,
      "종": 4404,
      "막": 4405,
      "발생": 4406,
      "역": 4407,
      "개인": 4408,
      "##목": 4409,
      "##정부": 4410,
      "채": 4411,
      "되는": 4412,
      "자신": 4413,
      "내용": 4414,
      "큰": 4415,
      "국민의": 4416,
      "공원": 4417,
      "##어나": 4418,
      "현실": 4419,
      "손": 4420,
      "있을": 4421,
      "##담": 4422,
      "##느": 4423,
      "##금을": 4424,
      "담": 4425,
      "##한다": 4426,
      "##인데": 4427,
      "##없이": 4428,
      "##악": 4429,
      "박": 4430,
      "투자": 4431,
      "악": 4432,
      "있다": 4433,
      "##득": 4434,
      "##녕": 4435,
      "이제": 4436,
      "바ᄁ": 4437,
      "여러": 4438,
      "##셨": 4439,
      "느": 4440,
      "국회": 4441,
      "##지도": 4442,
      "속": 4443,
      "제발": 4444,
      "날": 4445,
      "##시키": 4446,
      "알고": 4447,
      "##지요": 4448,
      "끄": 4449,
      "이명": 4450,
      "합": 4451,
      "##사람": 4452,
      "해결": 4453,
      "이번": 4454,
      "##째": 4455,
      "##이다": 4456,
      "##지를": 4457,
      "되어": 4458,
      "안전": 4459,
      "##걸": 4460,
      "##접": 4461,
      "##축": 4462,
      "##예": 4463,
      "대해": 4464,
      "점": 4465,
      "##될": 4466,
      "##향": 4467,
      "산": 4468,
      "게": 4469,
      "그런데": 4470,
      "##억": 4471,
      "##익": 4472,
      ".)": 4473,
      "어떻게": 4474,
      "##범죄": 4475,
      "새": 4476,
      "감사": 4477,
      "제도": 4478,
      "인권": 4479,
      "##사가": 4480,
      "이명박": 4481,
      "##려고": 4482,
      "##ᆺ이": 4483,
      "잘못": 4484,
      "시행": 4485,
      "보고": 4486,
      "부탁드립니다": 4487,
      "##씨": 4488,
      "##률": 4489,
      "##할수": 4490,
      "편": 4491,
      "##자는": 4492,
      "##습": 4493,
      "달": 4494,
      "##율": 4495,
      "이용": 4496,
      "가능": 4497,
      "반대": 4498,
      "##협": 4499,
      "##주의": 4500,
      "##냐": 4501,
      "##했습니다": 4502,
      "##정을": 4503,
      "애": 4504,
      "호": 4505,
      "걸": 4506,
      "##프": 4507,
      "##액": 4508,
      "정치": 4509,
      "##글": 4510,
      "함": 4511,
      "얼마": 4512,
      "##쳐": 4513,
      "##지않": 4514,
      "##코": 4515,
      "##랑": 4516,
      "늘": 4517,
      "##--------": 4518,
      "12": 4519,
      "경제": 4520,
      "바로": 4521,
      "##례": 4522,
      "##하세요": 4523,
      "##락": 4524,
      "서민": 4525,
      "청와": 4526,
      "##해주세요": 4527,
      "200": 4528,
      "나오": 4529,
      "##ᇂ고": 4530,
      "##극": 4531,
      "안녕": 4532,
      "##범": 4533,
      "##ᆸ시오": 4534,
      "월": 4535,
      "충": 4536,
      "꼭": 4537,
      "##기업": 4538,
      "청와대": 4539,
      "##써": 4540,
      "가장": 4541,
      "있도록": 4542,
      "있고": 4543,
      "부모": 4544,
      "미래": 4545,
      "##기가": 4546,
      "근무": 4547,
      "##레": 4548,
      "없이": 4549,
      "##부분": 4550,
      "##법을": 4551,
      "일반": 4552,
      "##가는": 4553,
      "##초": 4554,
      "높": 4555,
      "##나요": 4556,
      "독": 4557,
      "계속": 4558,
      "눈": 4559,
      "##것은": 4560,
      "않습니다": 4561,
      "좋게": 4562,
      "하루": 4563,
      "##ᆩ에": 4564,
      "준": 4565,
      "제대로": 4566,
      "쉬": 4567,
      "##으나": 4568,
      "##크": 4569,
      "##리사": 4570,
      "##력을": 4571,
      "철": 4572,
      "##이며": 4573,
      "아닙니다": 4574,
      "정도": 4575,
      "##있습니다": 4576,
      "##름": 4577,
      "출국": 4578,
      "##쟁": 4579,
      "행정": 4580,
      "태": 4581,
      "협": 4582,
      "30": 4583,
      "됩니다": 4584,
      "##독": 4585,
      "전문": 4586,
      "##기관": 4587,
      "이러한": 4588,
      "##존": 4589,
      "서울": 4590,
      "##장을": 4591,
      "##ᆯ수": 4592,
      "##의원": 4593,
      "가해": 4594,
      "규제": 4595,
      "##획": 4596,
      "희": 4597,
      "의무": 4598,
      "##사는": 4599,
      "휴": 4600,
      "##자의": 4601,
      "##같은": 4602,
      "사람이": 4603,
      "무고": 4604,
      "##것도": 4605,
      "##석": 4606,
      "이해": 4607,
      "##티": 4608,
      "##짜": 4609,
      "완": 4610,
      "19": 4611,
      "##기도": 4612,
      "##파트": 4613,
      "##ᆸ게": 4614,
      "##자를": 4615,
      "사업": 4616,
      "보내": 4617,
      "운영": 4618,
      "통해": 4619,
      "##림피": 4620,
      "온": 4621,
      "은": 4622,
      "##들과": 4623,
      "##ᆻ고": 4624,
      "체": 4625,
      "극": 4626,
      "##드시": 4627,
      "미국": 4628,
      "물론": 4629,
      "이미": 4630,
      "중국": 4631,
      "ht": 4632,
      "결정": 4633,
      "##없는": 4634,
      "로": 4635,
      "##아야": 4636,
      "헌": 4637,
      "잔": 4638,
      "번": 4639,
      "##혼": 4640,
      "한다": 4641,
      "적폐": 4642,
      "##시켜": 4643,
      "강력": 4644,
      "해당": 4645,
      "억": 4646,
      "있었": 4647,
      "그래서": 4648,
      "어린": 4649,
      "15": 4650,
      "사리사": 4651,
      "사리사요": 4652,
      "##하다": 4653,
      "##온": 4654,
      "##가지": 4655,
      "##즘": 4656,
      "주세요": 4657,
      "##혁": 4658,
      "##하면서": 4659,
      "같습니다": 4660,
      "2017": 4661,
      "친": 4662,
      "##ᆮ고": 4663,
      "어떤": 4664,
      "위해서": 4665,
      "##냥": 4666,
      "가족": 4667,
      "그러나": 4668,
      "급": 4669,
      "사고": 4670,
      "##투": 4671,
      "##금지": 4672,
      "##력이": 4673,
      "근로": 4674,
      "##끼": 4675,
      "항": 4676,
      "##장이": 4677,
      "좋은": 4678,
      "지역": 4679,
      "사람들이": 4680,
      "##리가": 4681,
      "세금": 4682,
      "접": 4683,
      "좀": 4684,
      "##이상": 4685,
      "##품": 4686,
      "죄": 4687,
      "끝": 4688,
      "##인의": 4689,
      "##창": 4690,
      "코": 4691,
      "##개월": 4692,
      "있다고": 4693,
      "##인지": 4694,
      "한다고": 4695,
      "##으니": 4696,
      "을": 4697,
      "정신": 4698,
      "##늘": 4699,
      "##어도": 4700,
      "받고": 4701,
      "##겠습니다": 4702,
      "##취": 4703,
      "활": 4704,
      "반드시": 4705,
      "누구": 4706,
      "있는데": 4707,
      "##줄": 4708,
      "##언": 4709,
      "##아서": 4710,
      "갈": 4711,
      "길": 4712,
      "장애": 4713,
      "##이라도": 4714,
      "##았습니다": 4715,
      "뿐": 4716,
      "개선": 4717,
      "수사": 4718,
      "##~~": 4719,
      "??": 4720,
      "##머": 4721,
      "11": 4722,
      "##기는": 4723,
      "잡": 4724,
      "이전": 4725,
      "질": 4726,
      "##대통령": 4727,
      "##하다고": 4728,
      "또는": 4729,
      "##해주": 4730,
      "말이": 4731,
      "아직": 4732,
      "보험": 4733,
      "일을": 4734,
      "그렇게": 4735,
      "한번": 4736,
      "##....": 4737,
      "문제가": 4738,
      "찾": 4739,
      "##한다고": 4740,
      "관리": 4741,
      "먹": 4742,
      "##학생": 4743,
      "면": 4744,
      "청원합니다": 4745,
      "뒤": 4746,
      "꾸": 4747,
      "##원을": 4748,
      "##확": 4749,
      "인해": 4750,
      "키": 4751,
      "나이": 4752,
      "않은": 4753,
      "##큼": 4754,
      "힘들": 4755,
      "효": 4756,
      "표": 4757,
      "##화를": 4758,
      "이루": 4759,
      "##짓": 4760,
      "자유": 4761,
      "그렇": 4762,
      "##정이": 4763,
      "##동산": 4764,
      "요즘": 4765,
      "순": 4766,
      "적용": 4767,
      "재산": 4768,
      "않을": 4769,
      "##승": 4770,
      "몰": 4771,
      "조사": 4772,
      "##상을": 4773,
      "빠": 4774,
      "##께서": 4775,
      "일본": 4776,
      "##것을": 4777,
      "##년이": 4778,
      "요구": 4779,
      "대부분": 4780,
      "##ᅲ스": 4781,
      "세계": 4782,
      "##채": 4783,
      "##럽": 4784,
      "##성을": 4785,
      "##위원": 4786,
      "건강": 4787,
      "겨": 4788,
      "##에서도": 4789,
      "퇴": 4790,
      "식": 4791,
      "##침": 4792,
      "중요": 4793,
      "되었": 4794,
      "해서": 4795,
      "##보험": 4796,
      "##너": 4797,
      "대한민국의": 4798,
      "음": 4799,
      "##사건": 4800,
      "언론": 4801,
      "보면": 4802,
      "를": 4803,
      "##봐": 4804,
      "##조직": 4805,
      "봅니다": 4806,
      "##교육": 4807,
      "아파트": 4808,
      "부동산": 4809,
      "먼": 4810,
      "##혜": 4811,
      "##다가": 4812,
      "##지가": 4813,
      "##올": 4814,
      "일이": 4815,
      "##//": 4816,
      "##인을": 4817,
      "글을": 4818,
      "존재": 4819,
      "신고": 4820,
      "##칙": 4821,
      "##해주시": 4822,
      "다음": 4823,
      "같이": 4824,
      "총": 4825,
      "없어": 4826,
      "##해도": 4827,
      "고통": 4828,
      "용": 4829,
      "##하는데": 4830,
      "좋겠습니다": 4831,
      "결과": 4832,
      "진행": 4833,
      "기업": 4834,
      "##동안": 4835,
      "삼": 4836,
      "것으로": 4837,
      "하면": 4838,
      "##정도": 4839,
      "부분": 4840,
      "안녕하세요": 4841,
      "마음": 4842,
      "##tp": 4843,
      "##는지": 4844,
      "크": 4845,
      "100": 4846,
      "지난": 4847,
      "국민들이": 4848,
      "하시": 4849,
      "##욱": 4850,
      "생활": 4851,
      "소방": 4852,
      "암": 4853,
      "곳": 4854,
      "http": 4855,
      "그냥": 4856,
      "://": 4857,
      "조금": 4858,
      "##곳": 4859,
      "##성이": 4860,
      "경찰의": 4861,
      "광": 4862,
      "##사의": 4863,
      "기준": 4864,
      "##므로": 4865,
      "##대한": 4866,
      "많습니다": 4867,
      "가지고": 4868,
      "있으며": 4869,
      "##림픽": 4870,
      "당연": 4871,
      "##백": 4872,
      "##렴": 4873,
      "##슨": 4874,
      "##효": 4875,
      "##원이": 4876,
      "##제도": 4877,
      "대해서": 4878,
      "창": 4879,
      "환경": 4880,
      "어느": 4881,
      "##많": 4882,
      "난": 4883,
      "까": 4884,
      "있다는": 4885,
      "시작": 4886,
      "##두순": 4887,
      "답변": 4888,
      "##융": 4889,
      "##센": 4890,
      "##검": 4891,
      "##했던": 4892,
      "책임": 4893,
      "조두순": 4894,
      "자기": 4895,
      "관계": 4896,
      "##층": 4897,
      "##급을": 4898,
      "국민들의": 4899,
      "돈을": 4900,
      "##문에": 4901,
      "도시": 4902,
      "##먹": 4903,
      "법을": 4904,
      "##되지": 4905,
      "선수": 4906,
      "##치를": 4907,
      "##되었": 4908,
      "##더라도": 4909,
      "봐": 4910,
      "##쇄": 4911,
      "되고": 4912,
      "방법": 4913,
      "해주세요": 4914,
      "국회의원": 4915,
      "소년": 4916,
      "거래소": 4917,
      "있어": 4918,
      "##당한": 4919,
      "즉": 4920,
      "##열": 4921,
      "##자들이": 4922,
      "고시": 4923,
      "정부가": 4924,
      "기본": 4925,
      "##뿐": 4926,
      "천": 4927,
      "잔인": 4928,
      "요청": 4929,
      "뭐": 4930,
      "##찌": 4931,
      "사이": 4932,
      "되었습니다": 4933,
      "##한다는": 4934,
      "말ᄊ": 4935,
      "이유로": 4936,
      "##ti": 4937,
      "인정": 4938,
      "##막": 4939,
      "##아니": 4940,
      "토": 4941,
      "헌법": 4942,
      "직접": 4943,
      "없고": 4944,
      "갖": 4945,
      "민주": 4946,
      "받을": 4947,
      "이게": 4948,
      "뉴스": 4949,
      "##생활": 4950,
      "카": 4951,
      "업무": 4952,
      "##시고": 4953,
      "##휴": 4954,
      "피해를": 4955,
      "##ᆻ다고": 4956,
      "투기": 4957,
      "무고한": 4958,
      "폭행": 4959,
      "무어": 4960,
      "##이는": 4961,
      "이루어": 4962,
      "##ᆻ는데": 4963,
      "무슨": 4964,
      "특히": 4965,
      "억울": 4966,
      "일자": 4967,
      "시험": 4968,
      "최저": 4969,
      "##답": 4970,
      "않았": 4971,
      "인간": 4972,
      "##제로": 4973,
      "육": 4974,
      "개정": 4975,
      "##팀": 4976,
      "지급": 4977,
      "기술": 4978,
      "##것입니다": 4979,
      "##마다": 4980,
      "##값": 4981,
      "##사고": 4982,
      "함께": 4983,
      "##====": 4984,
      "논": 4985,
      "판단": 4986,
      "##겁니다": 4987,
      "##구요": 4988,
      "노동": 4989,
      "co": 4990,
      "상태": 4991,
      "인터": 4992,
      "못하고": 4993,
      "국민을": 4994,
      "기회": 4995,
      "##임을": 4996,
      "할수": 4997,
      "이를": 4998,
      "##시설": 4999,
      "##상이": 5000,
      "블": 5001,
      "##로운": 5002,
      "회사": 5003,
      "다니": 5004,
      "떠": 5005,
      "지나": 5006,
      "부족": 5007,
      "확인": 5008,
      "##정한": 5009,
      "하는데": 5010,
      "##ᆸ시요": 5011,
      "축": 5012,
      "##명을": 5013,
      "싸": 5014,
      "##릴": 5015,
      "흐": 5016,
      "##돼": 5017,
      "도우": 5018,
      "##혹": 5019,
      "##등학교": 5020,
      "지켜": 5021,
      "살고": 5022,
      "떨": 5023,
      "##제를": 5024,
      "받는": 5025,
      "결국": 5026,
      "귀": 5027,
      "일부": 5028,
      "##했다": 5029,
      "행동": 5030,
      "고문": 5031,
      "징": 5032,
      "얼마나": 5033,
      "해주": 5034,
      "##의를": 5035,
      "국민이": 5036,
      "##위원회": 5037,
      "병원": 5038,
      "##아이": 5039,
      "##장은": 5040,
      "##참": 5041,
      "##자로": 5042,
      "혼": 5043,
      "공부": 5044,
      "최근": 5045,
      "외국": 5046,
      "법률": 5047,
      "전혀": 5048,
      "것이다": 5049,
      "##료를": 5050,
      "##업을": 5051,
      "있게": 5052,
      "볼": 5053,
      "##규직": 5054,
      "발전": 5055,
      "제1": 5056,
      "어디": 5057,
      "풀": 5058,
      "!!!": 5059,
      "먼저": 5060,
      "따라서": 5061,
      "빨": 5062,
      "이야": 5063,
      "##히려": 5064,
      "##일이": 5065,
      "혹": 5066,
      "침": 5067,
      "심각": 5068,
      "##군요": 5069,
      "##자들": 5070,
      "시민": 5071,
      "농": 5072,
      "너무나": 5073,
      "이에": 5074,
      "성폭": 5075,
      "본인": 5076,
      "##명이": 5077,
      "담당": 5078,
      "##철": 5079,
      "##보고": 5080,
      "##시에": 5081,
      "공공": 5082,
      "대학": 5083,
      "오히려": 5084,
      "남성": 5085,
      "의견": 5086,
      "##손": 5087,
      "갑": 5088,
      "의료": 5089,
      "부산": 5090,
      "일어나": 5091,
      "금지": 5092,
      "##넷": 5093,
      "##스테": 5094,
      "라는": 5095,
      "##ew": 5096,
      "##입니까": 5097,
      "##광": 5098,
      "##갈": 5099,
      "언제": 5100,
      "개혁": 5101,
      "##보호": 5102,
      "장관": 5103,
      "##겠지만": 5104,
      "했습니다": 5105,
      "더욱": 5106,
      "##장에서": 5107,
      "라고": 5108,
      "이후": 5109,
      "##셨으면": 5110,
      "없다": 5111,
      "##싶": 5112,
      "보여": 5113,
      "그럼": 5114,
      "나와": 5115,
      "##잡": 5116,
      "정부의": 5117,
      "어린이": 5118,
      "##카": 5119,
      "대책": 5120,
      "앞으로": 5121,
      "구속": 5122,
      "도박": 5123,
      "처리": 5124,
      "##씩": 5125,
      "##친": 5126,
      "수도": 5127,
      "되지": 5128,
      "##구하고": 5129,
      "##경찰": 5130,
      "대한민국은": 5131,
      "##익을": 5132,
      "##주택": 5133,
      "밝": 5134,
      "행위": 5135,
      "##훈": 5136,
      "관한": 5137,
      "출국금지": 5138,
      "##행을": 5139,
      "##자들은": 5140,
      "##돌": 5141,
      "말씀": 5142,
      "써": 5143,
      "##정책": 5144,
      "##수가": 5145,
      "##조건": 5146,
      "##긴": 5147,
      "##때문에": 5148,
      "오늘": 5149,
      "##빠": 5150,
      "바뀌": 5151,
      "전국": 5152,
      "폐쇄": 5153,
      "기사": 5154,
      "기간": 5155,
      "!!": 5156,
      "##기간": 5157,
      "커": 5158,
      "못한": 5159,
      "이는": 5160,
      "##비를": 5161,
      "인터넷": 5162,
      "##응": 5163,
      "##겠습니까": 5164,
      "##으로서": 5165,
      "절대": 5166,
      "##ᅩᆸ": 5167,
      "##전에": 5168,
      "##세를": 5169,
      "도와": 5170,
      "국내": 5171,
      "....": 5172,
      "마련": 5173,
      "##심히": 5174,
      "##적이": 5175,
      "놓": 5176,
      "거짓": 5177,
      "계약": 5178,
      "포함": 5179,
      "##도한": 5180,
      "최소": 5181,
      "##하였습니다": 5182,
      "대표": 5183,
      "자체": 5184,
      "##북도": 5185,
      "1년": 5186,
      "매우": 5187,
      "##안을": 5188,
      "##대를": 5189,
      "##탄": 5190,
      "밖에": 5191,
      "청년": 5192,
      "##자에게": 5193,
      "##거래": 5194,
      "망": 5195,
      "가정": 5196,
      "##허": 5197,
      "##조성": 5198,
      "핵": 5199,
      "범죄를": 5200,
      "##하도록": 5201,
      "희망": 5202,
      "##셔서": 5203,
      "국토": 5204,
      "주민": 5205,
      "혜": 5206,
      "감사합니다": 5207,
      "경상": 5208,
      "정부는": 5209,
      "하며": 5210,
      "아이를": 5211,
      "올라": 5212,
      "금융": 5213,
      "##가를": 5214,
      "##권을": 5215,
      "기관": 5216,
      "##센터": 5217,
      "##중에": 5218,
      "검찰": 5219,
      "낮": 5220,
      "살아가": 5221,
      "##곡": 5222,
      "생각이": 5223,
      "파렴": 5224,
      "다르": 5225,
      "출소": 5226,
      "불가": 5227,
      "파렴치": 5228,
      "별": 5229,
      "공원조성": 5230,
      "##놓고": 5231,
      "공원조성계": 5232,
      "##색": 5233,
      "##음을": 5234,
      "지방": 5235,
      "##서를": 5236,
      "주식": 5237,
      "부디": 5238,
      "열심히": 5239,
      "똑": 5240,
      "직원": 5241,
      "10년": 5242,
      "필요한": 5243,
      "##장에": 5244,
      "해도": 5245,
      "싶습니다": 5246,
      "##어가": 5247,
      "경찰이": 5248,
      "사리사욕": 5249,
      "승": 5250,
      "##만큼": 5251,
      "지키": 5252,
      "키우": 5253,
      "얘": 5254,
      "아니고": 5255,
      "불구하고": 5256,
      "강화": 5257,
      "##ᆺ을": 5258,
      "엄청": 5259,
      "혜택": 5260,
      "삶": 5261,
      "노력": 5262,
      "##듯": 5263,
      "##돈": 5264,
      "동의": 5265,
      "대출": 5266,
      "##주는": 5267,
      "동안": 5268,
      "차량": 5269,
      "수준": 5270,
      "국방": 5271,
      "완전": 5272,
      "는": 5273,
      "정보": 5274,
      "##ᅩᆨ지": 5275,
      "무서": 5276,
      "##탈": 5277,
      "##먼": 5278,
      "느끼": 5279,
      "저의": 5280,
      "불법만": 5281,
      "리": 5282,
      "납": 5283,
      "##시는": 5284,
      "설명": 5285,
      "처음": 5286,
      "##조차": 5287,
      "히": 5288,
      "##식을": 5289,
      "##만을": 5290,
      "보다": 5291,
      "제한": 5292,
      "트": 5293,
      "##하였": 5294,
      "분명": 5295,
      "주장": 5296,
      "##같이": 5297,
      "##교통": 5298,
      "내가": 5299,
      "국민들을": 5300,
      "##보니": 5301,
      "못하는": 5302,
      "경상북도": 5303,
      "##ᆸ습니다": 5304,
      "##끄": 5305,
      "##대에": 5306,
      "것도": 5307,
      "저지": 5308,
      "##되어야": 5309,
      "##원의": 5310,
      "주택": 5311,
      "있지만": 5312,
      "##님이": 5313,
      "##치는": 5314,
      "##기로": 5315,
      "재판": 5316,
      "##인은": 5317,
      "극악": 5318,
      "고용": 5319,
      "2년": 5320,
      "##행위": 5321,
      "정의": 5322,
      "##많은": 5323,
      "혈": 5324,
      "##----------------": 5325,
      "여기": 5326,
      "꼬": 5327,
      "위험": 5328,
      "세상": 5329,
      "머": 5330,
      "##트코": 5331,
      "시키": 5332,
      "우선": 5333,
      "18": 5334,
      "비용": 5335,
      "자신의": 5336,
      "조직": 5337,
      "2017년": 5338,
      "##꺼": 5339,
      "당신": 5340,
      "소년법": 5341,
      "##한테": 5342,
      "##어요": 5343,
      "##려는": 5344,
      "안되는": 5345,
      "말을": 5346,
      "##밖에": 5347,
      "없다고": 5348,
      "응": 5349,
      "올려": 5350,
      "무시": 5351,
      "신청": 5352,
      "규정": 5353,
      "##ns": 5354,
      "나가": 5355,
      "##하거나": 5356,
      "##충": 5357,
      "해외": 5358,
      "과거": 5359,
      "##ᅯ야": 5360,
      "##하나": 5361,
      "정권": 5362,
      "##징": 5363,
      "없애": 5364,
      "법무": 5365,
      "##이가": 5366,
      "##더군요": 5367,
      "원칙": 5368,
      "추가": 5369,
      "##리에": 5370,
      "전화": 5371,
      "선택": 5372,
      "각종": 5373,
      "##지원": 5374,
      "##치가": 5375,
      "##으로써": 5376,
      "이건": 5377,
      "개발": 5378,
      "50": 5379,
      "##봉": 5380,
      "엄마": 5381,
      "믿": 5382,
      "극악무": 5383,
      "사는": 5384,
      "해주시": 5385,
      "##폰": 5386,
      "##화폐": 5387,
      "##임금": 5388,
      "##수를": 5389,
      "비트코": 5390,
      "당시": 5391,
      "##하지만": 5392,
      "살아": 5393,
      "##서는": 5394,
      "##하니": 5395,
      "자격": 5396,
      "##머니": 5397,
      "예산": 5398,
      "둘": 5399,
      "안된": 5400,
      "##굴": 5401,
      "발표": 5402,
      "##명의": 5403,
      "철저": 5404,
      "준비": 5405,
      "##심을": 5406,
      "무조건": 5407,
      "살인": 5408,
      "건설": 5409,
      "걱": 5410,
      "17": 5411,
      "##ᆷ에": 5412,
      "##원에": 5413,
      "아이들이": 5414,
      "법이": 5415,
      "수시": 5416,
      "##만이": 5417,
      "##되면": 5418,
      "##er": 5419,
      "방송": 5420,
      "겁니다": 5421,
      "출산": 5422,
      "빼": 5423,
      "여자": 5424,
      "##한다면": 5425,
      "##들에": 5426,
      "##따": 5427,
      "못하게": 5428,
      "첫": 5429,
      "##쪽": 5430,
      "있어서": 5431,
      "사기": 5432,
      "##땅": 5433,
      "잃": 5434,
      "시켜": 5435,
      "담배": 5436,
      "아주": 5437,
      "동물": 5438,
      "##ᆻ을": 5439,
      "인한": 5440,
      "주변": 5441,
      "나라가": 5442,
      "어린이집": 5443,
      "되면": 5444,
      "장애인": 5445,
      "##삼": 5446,
      "처벌을": 5447,
      "잠": 5448,
      "자살": 5449,
      "하게": 5450,
      "##ᆻ으면": 5451,
      "탄": 5452,
      "운전": 5453,
      "##식으로": 5454,
      "##11": 5455,
      "모습": 5456,
      "범": 5457,
      "뽑": 5458,
      "반대합니다": 5459,
      "##도로": 5460,
      "국제": 5461,
      "하였습니다": 5462,
      "##스럽": 5463,
      "거의": 5464,
      "정부에서": 5465,
      "##ᆺ한": 5466,
      "내려": 5467,
      "##주고": 5468,
      "교통": 5469,
      "알려": 5470,
      "##받고": 5471,
      "떨어": 5472,
      "상대로": 5473,
      "올림픽": 5474,
      "주는": 5475,
      "##ᆻ던": 5476,
      "##부모": 5477,
      "##녹지": 5478,
      "받지": 5479,
      "지지": 5480,
      "보장": 5481,
      "##대가": 5482,
      "기존": 5483,
      "##꾸": 5484,
      "##딩": 5485,
      "부터": 5486,
      "##육을": 5487,
      "##르고": 5488,
      "암호": 5489,
      "자동": 5490,
      "교사": 5491,
      "때문입니다": 5492,
      "##엔": 5493,
      "##착": 5494,
      "##져야": 5495,
      "범죄자": 5496,
      "영어": 5497,
      "##관계": 5498,
      "##원은": 5499,
      "법의": 5500,
      "진짜": 5501,
      "##해보": 5502,
      "##놓": 5503,
      "치료": 5504,
      "잘못된": 5505,
      "##아요": 5506,
      "##일을": 5507,
      "충분": 5508,
      "제2": 5509,
      "제안": 5510,
      "특별": 5511,
      "##가족": 5512,
      "나는": 5513,
      "##운전": 5514,
      "복지": 5515,
      "적극": 5516,
      "##ᆷ의": 5517,
      "##페": 5518,
      "취업": 5519,
      "##려면": 5520,
      "##문제": 5521,
      "평창": 5522,
      "공개": 5523,
      "과연": 5524,
      "25": 5525,
      "##ᆺ글": 5526,
      "수능": 5527,
      "##좀": 5528,
      "##균": 5529,
      "공원녹지": 5530,
      "##총": 5531,
      "##쓰": 5532,
      "누가": 5533,
      "등의": 5534,
      "##측": 5535,
      "읽": 5536,
      "메": 5537,
      "##업체": 5538,
      "##절한": 5539,
      "파렴치하고": 5540,
      "id": 5541,
      "백": 5542,
      "##사회": 5543,
      "국정": 5544,
      "##장관": 5545,
      "##더니": 5546,
      "##화가": 5547,
      "말도": 5548,
      "안됩니다": 5549,
      "채용": 5550,
      "나라를": 5551,
      "항상": 5552,
      "돼": 5553,
      "##찬": 5554,
      "##하시는": 5555,
      "##지역": 5556,
      "##스로": 5557,
      "##드는": 5558,
      "훈": 5559,
      "##퇴": 5560,
      "하면서": 5561,
      "행복": 5562,
      "##이지": 5563,
      "##ᆻ다는": 5564,
      "더이상": 5565,
      "괴": 5566,
      "술": 5567,
      "##베": 5568,
      "##괴": 5569,
      "가격": 5570,
      "탈": 5571,
      "팔": 5572,
      "##ᆻ지만": 5573,
      "터": 5574,
      "불안": 5575,
      "썩": 5576,
      "들어가": 5577,
      "공원조성계회": 5578,
      "만약": 5579,
      "돈이": 5580,
      "젊": 5581,
      "아무런": 5582,
      "등을": 5583,
      "국민들": 5584,
      "##관리": 5585,
      "##세먼": 5586,
      "뜨": 5587,
      "##자들의": 5588,
      "극악무도한": 5589,
      "##킹": 5590,
      "대상": 5591,
      "##정보": 5592,
      "수가": 5593,
      "한다는": 5594,
      "우리는": 5595,
      "증거": 5596,
      "일자리": 5597,
      "울": 5598,
      "##원에서": 5599,
      "블록": 5600,
      "유지": 5601,
      "패": 5602,
      "시스테": 5603,
      "참여": 5604,
      "흥": 5605,
      "받은": 5606,
      "##산시": 5607,
      "분양": 5608,
      "전세": 5609,
      "사리사욕을": 5610,
      "놀": 5611,
      "사람들": 5612,
      "사람들은": 5613,
      "정책을": 5614,
      "판결": 5615,
      "##다니": 5616,
      "가지": 5617,
      "월급": 5618,
      "낙": 5619,
      "있었습니다": 5620,
      "##국가": 5621,
      "##인가": 5622,
      "이유는": 5623,
      "찌": 5624,
      "대하여": 5625,
      "##id": 5626,
      "지속": 5627,
      "##공무원": 5628,
      "##벽": 5629,
      "단순": 5630,
      "40": 5631,
      "홍": 5632,
      "선생": 5633,
      "집단": 5634,
      "상실": 5635,
      "##식이": 5636,
      "##장의": 5637,
      "##지에": 5638,
      "2015": 5639,
      "##들어": 5640,
      "13": 5641,
      "으로": 5642,
      "남북": 5643,
      "판매": 5644,
      "결혼": 5645,
      "없었": 5646,
      "금액": 5647,
      "짜": 5648,
      "음주": 5649,
      "##사업": 5650,
      "존경": 5651,
      "땅": 5652,
      "없을": 5653,
      "깨": 5654,
      "아니면": 5655,
      "##물을": 5656,
      "설치": 5657,
      "있어야": 5658,
      "##음이": 5659,
      "##인가요": 5660,
      "필요합니다": 5661,
      "##ᆸ시다": 5662,
      "전문조직": 5663,
      "##객": 5664,
      "푸": 5665,
      "##ww": 5666,
      "의해": 5667,
      "##복지": 5668,
      "직장": 5669,
      "##또": 5670,
      "가진": 5671,
      "정확": 5672,
      "테": 5673,
      "##압": 5674,
      "##국민": 5675,
      "친구": 5676,
      "www": 5677,
      "##단체": 5678,
      "##도를": 5679,
      "미세먼": 5680,
      "경우가": 5681,
      "따른": 5682,
      "##10": 5683,
      "##부가": 5684,
      "##금이": 5685,
      "##소를": 5686,
      "어ᄍ": 5687,
      "자녀": 5688,
      "문제는": 5689,
      "##수의": 5690,
      "전환": 5691,
      "유치": 5692,
      "##정은": 5693,
      "우리가": 5694,
      "중요한": 5695,
      "오래": 5696,
      "##법이": 5697,
      "없다는": 5698,
      "능": 5699,
      "사회적": 5700,
      "데": 5701,
      "반복": 5702,
      "##라면": 5703,
      "주차": 5704,
      "2016": 5705,
      "힘든": 5706,
      "당장": 5707,
      "24": 5708,
      "수많은": 5709,
      "작은": 5710,
      "산업": 5711,
      "국가가": 5712,
      "성범죄": 5713,
      "##ews": 5714,
      "블록체": 5715,
      "제외": 5716,
      "퇴직": 5717,
      "##근혜": 5718,
      "주시기": 5719,
      "##리지": 5720,
      "생각됩니다": 5721,
      "##동을": 5722,
      "얻": 5723,
      "##성화": 5724,
      "##앙": 5725,
      "##심이": 5726,
      "프로": 5727,
      "매일": 5728,
      "##집니다": 5729,
      "##학년": 5730,
      "##ᆫ드": 5731,
      "정규직": 5732,
      "강제": 5733,
      "공정": 5734,
      "받아야": 5735,
      "삭": 5736,
      "##생을": 5737,
      "##지지": 5738,
      "기다": 5739,
      "당연히": 5740,
      "새로운": 5741,
      "##츠": 5742,
      "문화": 5743,
      "까지": 5744,
      "고려": 5745,
      "##갖": 5746,
      "헤": 5747,
      "않아": 5748,
      "##비스": 5749,
      "어려운": 5750,
      "불과": 5751,
      "제공": 5752,
      "사람은": 5753,
      "문제를": 5754,
      "##소에": 5755,
      "문재인대통령": 5756,
      "##꾼": 5757,
      "##숙": 5758,
      "생각을": 5759,
      "##위해": 5760,
      "불편": 5761,
      "등등": 5762,
      "##밀": 5763,
      "##하십니까": 5764,
      "밀": 5765,
      "무기": 5766,
      "서로": 5767,
      "##받는": 5768,
      "##기고": 5769,
      "상대": 5770,
      "젊은": 5771,
      "긴": 5772,
      "살해": 5773,
      "아무리": 5774,
      "책임을": 5775,
      "평가": 5776,
      "민원을": 5777,
      "##그래": 5778,
      "##자체": 5779,
      "##청산": 5780,
      "받았": 5781,
      "최저임금": 5782,
      "##르는": 5783,
      "추진": 5784,
      "시급": 5785,
      "##문고": 5786,
      "평등": 5787,
      "성폭력": 5788,
      "의미": 5789,
      "##000": 5790,
      "도로": 5791,
      "##지어": 5792,
      "##시키고": 5793,
      "높은": 5794,
      "##치고": 5795,
      "네": 5796,
      "##니까": 5797,
      "나서": 5798,
      "급여": 5799,
      "##직을": 5800,
      "암호화폐": 5801,
      "##8년": 5802,
      "##사에": 5803,
      "##은행": 5804,
      "보상": 5805,
      "이하": 5806,
      "저도": 5807,
      "국가의": 5808,
      "##홀": 5809,
      "대기업": 5810,
      "만든": 5811,
      "사항": 5812,
      "안되": 5813,
      "##중생": 5814,
      "##누": 5815,
      "동일": 5816,
      "##**": 5817,
      "##이트": 5818,
      "화재": 5819,
      "지금까지": 5820,
      "법무부": 5821,
      "아버": 5822,
      "차별": 5823,
      "##새": 5824,
      "##만으로": 5825,
      "청원을": 5826,
      "대체": 5827,
      "##도가": 5828,
      "안타": 5829,
      "kr": 5830,
      "##함을": 5831,
      "##및": 5832,
      "##보면": 5833,
      "##실을": 5834,
      "##점을": 5835,
      "##ᆸ연": 5836,
      "지진": 5837,
      "##헌": 5838,
      "시설": 5839,
      "##부를": 5840,
      "빨리": 5841,
      "여러분": 5842,
      "실시": 5843,
      "##싸": 5844,
      "욕": 5845,
      "진급을": 5846,
      "##하신": 5847,
      "위반": 5848,
      "지금도": 5849,
      "보육": 5850,
      "향": 5851,
      "검토": 5852,
      "비정": 5853,
      "짓": 5854,
      "박근혜": 5855,
      "겪": 5856,
      "느ᄁ": 5857,
      "14": 5858,
      "숨": 5859,
      "com": 5860,
      "구조": 5861,
      "찾아": 5862,
      "소비": 5863,
      "벌금": 5864,
      "댓글": 5865,
      "모르는": 5866,
      "역시": 5867,
      "전쟁": 5868,
      "##해야합니다": 5869,
      "악용": 5870,
      "건물": 5871,
      "##ᆸ고": 5872,
      "국민들에게": 5873,
      "안타까": 5874,
      "가는": 5875,
      "##경찰서": 5876,
      "시간이": 5877,
      "피해자가": 5878,
      "만들고": 5879,
      "공원녹지법": 5880,
      "##사와": 5881,
      "간곡": 5882,
      "##방송": 5883,
      "졸": 5884,
      "##음에도": 5885,
      "199": 5886,
      "하기": 5887,
      "이야기": 5888,
      "##무를": 5889,
      "##환경": 5890,
      "무엇": 5891,
      "##~~~~": 5892,
      "##나는": 5893,
      "강력한": 5894,
      "단일": 5895,
      "##내용": 5896,
      "000": 5897,
      "고소": 5898,
      "국민들은": 5899,
      "##뜨": 5900,
      "사랑": 5901,
      "##하라": 5902,
      "이제는": 5903,
      "착": 5904,
      "##생각": 5905,
      "불가능": 5906,
      "밝혀": 5907,
      "##뢰": 5908,
      "업체": 5909,
      "##이기": 5910,
      "##들만": 5911,
      "잔인하며": 5912,
      "거짓말": 5913,
      "주고": 5914,
      "온갖": 5915,
      "아직도": 5916,
      "그에": 5917,
      "쉽게": 5918,
      "심지어": 5919,
      "중소": 5920,
      "##나라는": 5921,
      "##번째": 5922,
      "소득": 5923,
      "부담": 5924,
      "압": 5925,
      "##이라면": 5926,
      "종교": 5927,
      "##le": 5928,
      "그만": 5929,
      "않도록": 5930,
      "3년": 5931,
      "맡": 5932,
      "##랴": 5933,
      "##듯이": 5934,
      "혹은": 5935,
      "초등": 5936,
      "아닙니까": 5937,
      "은행": 5938,
      "꿈": 5939,
      "##수도": 5940,
      "##하는게": 5941,
      "침해": 5942,
      "##오는": 5943,
      "걱정": 5944,
      "##반도": 5945,
      "##시험": 5946,
      "##산업": 5947,
      "국토교통": 5948,
      "2005": 5949,
      "##ᅡᆼ비": 5950,
      "##실험": 5951,
      "기대": 5952,
      "정상": 5953,
      "##계획": 5954,
      "부모님": 5955,
      "제출": 5956,
      "세금을": 5957,
      "변경": 5958,
      "news": 5959,
      "##페이": 5960,
      "##정의": 5961,
      "답답": 5962,
      "경산시": 5963,
      "보는": 5964,
      "##가고": 5965,
      "16": 5966,
      "민주주의": 5967,
      "##핵": 5968,
      "##어난": 5969,
      "된다": 5970,
      "##수있": 5971,
      "형사": 5972,
      "전체": 5973,
      "강남": 5974,
      "임대": 5975,
      "사건을": 5976,
      "##이지만": 5977,
      "연구": 5978,
      "사리사욕과": 5979,
      "얘기": 5980,
      "##로서": 5981,
      "분들이": 5982,
      "봉": 5983,
      "이것이": 5984,
      "##위협": 5985,
      "가까": 5986,
      "스스로": 5987,
      "늦": 5988,
      "진정": 5989,
      "단속": 5990,
      "아래": 5991,
      "##덕": 5992,
      "알아": 5993,
      "목수": 5994,
      "아동": 5995,
      "돌아": 5996,
      "##........": 5997,
      "##연금": 5998,
      "##했고": 5999,
      "사라": 6000,
      "##드리": 6001,
      "##메": 6002,
      "한달": 6003,
      "##자인": 6004,
      "민간": 6005,
      "바꾸": 6006,
      "이해가": 6007,
      "##이를": 6008,
      "##점이": 6009,
      "##된다": 6010,
      "##이란": 6011,
      "손해": 6012,
      "약물": 6013,
      "##대체": 6014,
      "##관련": 6015,
      "26": 6016,
      "##20": 6017,
      "##장애": 6018,
      "그대로": 6019,
      "##였습니다": 6020,
      "평화": 6021,
      "##격을": 6022,
      "포기": 6023,
      "##평등": 6024,
      "사실을": 6025,
      "##자와": 6026,
      "싫": 6027,
      "##가가": 6028,
      "있는지": 6029,
      "엄청난": 6030,
      "점점": 6031,
      "의한": 6032,
      "내용을": 6033,
      "##킨": 6034,
      "고발": 6035,
      "정당": 6036,
      "##??": 6037,
      "##적이고": 6038,
      "주십시오": 6039,
      "딸": 6040,
      "##문을": 6041,
      "드립니다": 6042,
      "사람을": 6043,
      "세월": 6044,
      "있지": 6045,
      "##분이": 6046,
      "입장": 6047,
      "##부는": 6048,
      "##계를": 6049,
      "간곡히": 6050,
      "##하다는": 6051,
      "##플": 6052,
      "있으면": 6053,
      "대통령이": 6054,
      "##필": 6055,
      "##과의": 6056,
      "줄어": 6057,
      "낳": 6058,
      "시장": 6059,
      "택": 6060,
      "적폐청산": 6061,
      "만큼": 6062,
      "문재인정부": 6063,
      "##합니까": 6064,
      "##칠": 6065,
      "##공원": 6066,
      "가져": 6067,
      "묻": 6068,
      "측": 6069,
      "마지": 6070,
      "##움": 6071,
      "##번호": 6072,
      "돌아가": 6073,
      "위협": 6074,
      "##대의": 6075,
      "챙": 6076,
      "넣": 6077,
      "전부": 6078,
      "직업": 6079,
      "국가에서": 6080,
      "##30": 6081,
      "아시": 6082,
      "##러운": 6083,
      "##스트": 6084,
      "있으": 6085,
      "인사": 6086,
      "존경하는": 6087,
      "인상": 6088,
      "##조사": 6089,
      "저를": 6090,
      "한반도": 6091,
      "##사용": 6092,
      "효과": 6093,
      "##기준": 6094,
      "##겠죠": 6095,
      "##차를": 6096,
      "##호사": 6097,
      "생기": 6098,
      "제기": 6099,
      "상황이": 6100,
      "21": 6101,
      "지금은": 6102,
      "있다면": 6103,
      "##내고": 6104,
      "두려": 6105,
      "싶은": 6106,
      "생겨": 6107,
      "##특": 6108,
      "##in": 6109,
      "##좌": 6110,
      "##인들이": 6111,
      "쓸": 6112,
      "##즈": 6113,
      "황": 6114,
      "가입": 6115,
      "##일에": 6116,
      "도대체": 6117,
      "##었다": 6118,
      "##념": 6119,
      "아닐": 6120,
      "가스": 6121,
      "경쟁": 6122,
      "확실": 6123,
      "##커": 6124,
      "부정": 6125,
      "영향": 6126,
      "불법만행": 6127,
      "##할때": 6128,
      "끊": 6129,
      "살해위협": 6130,
      "된다고": 6131,
      "발언": 6132,
      "##개발": 6133,
      "##00만원": 6134,
      "화폐": 6135,
      "먹고": 6136,
      "게임": 6137,
      "선생님": 6138,
      "도입": 6139,
      "작성": 6140,
      "크게": 6141,
      "현행": 6142,
      "관련된": 6143,
      "훈련": 6144,
      "##수는": 6145,
      "합니까": 6146,
      "말고": 6147,
      "않았습니다": 6148,
      "올해": 6149,
      "코인": 6150,
      "##올림픽": 6151,
      "않으면": 6152,
      "##선을": 6153,
      "##신문고": 6154,
      "실효": 6155,
      "31": 6156,
      "##부로": 6157,
      "##우는": 6158,
      "의사": 6159,
      "##제가": 6160,
      "##========": 6161,
      "##위를": 6162,
      "##진국": 6163,
      "##되었습니다": 6164,
      "##했는데": 6165,
      "##수당": 6166,
      "##보호법": 6167,
      "흘": 6168,
      "##케": 6169,
      "##일로": 6170,
      "되어야": 6171,
      "미성": 6172,
      "나라에서": 6173,
      "##지로": 6174,
      "##찍": 6175,
      "에서": 6176,
      "듭니다": 6177,
      "29": 6178,
      "뛰": 6179,
      "소통": 6180,
      "##겠다고": 6181,
      "군대": 6182,
      "##ᆺ불": 6183,
      "기획": 6184,
      "희생": 6185,
      "비트코인": 6186,
      "##하여야": 6187,
      "##유린": 6188,
      "만나": 6189,
      "최고": 6190,
      "##봅니다": 6191,
      "협박": 6192,
      "다양": 6193,
      "우리나라는": 6194,
      "##증을": 6195,
      "누군": 6196,
      "사람들을": 6197,
      "##or": 6198,
      "거주": 6199,
      "##만명": 6200,
      "도움이": 6201,
      "##듭니다": 6202,
      "진급": 6203,
      "실제": 6204,
      "이것은": 6205,
      "아프": 6206,
      "지금의": 6207,
      "마지막": 6208,
      "##거리": 6209,
      "인권유린": 6210,
      "삭제": 6211,
      "견": 6212,
      "집중": 6213,
      "페": 6214,
      "##르게": 6215,
      "위하여": 6216,
      "과정": 6217,
      "회신": 6218,
      "공원조성계획을": 6219,
      "올립니다": 6220,
      "이어": 6221,
      "##홀딩": 6222,
      "##옥": 6223,
      "선거": 6224,
      "##쁜": 6225,
      "궁": 6226,
      "바람": 6227,
      "사례": 6228,
      "서류": 6229,
      "송": 6230,
      "현실입니다": 6231,
      "블록체인": 6232,
      "안정": 6233,
      "우리의": 6234,
      "##에만": 6235,
      "##리한": 6236,
      "ids": 6237,
      "##전문": 6238,
      "ids홀딩": 6239,
      "빈": 6240,
      "##on": 6241,
      "##계약": 6242,
      "##하던": 6243,
      "구매": 6244,
      "##겠다는": 6245,
      "흥신": 6246,
      "동시에": 6247,
      "5년": 6248,
      "임금": 6249,
      "군인": 6250,
      "##시장": 6251,
      "),": 6252,
      "##좋": 6253,
      "##약을": 6254,
      "가혹": 6255,
      "미래를": 6256,
      "##었고": 6257,
      "가고": 6258,
      "##척": 6259,
      "중소기업": 6260,
      "##을때": 6261,
      "##최": 6262,
      "많아": 6263,
      "좋아": 6264,
      "대부분의": 6265,
      "최소한": 6266,
      "##기술": 6267,
      "보유": 6268,
      "베": 6269,
      "경험": 6270,
      "그때": 6271,
      "아이들을": 6272,
      "근거": 6273,
      "아이가": 6274,
      "남자": 6275,
      "사형": 6276,
      "우려": 6277,
      "현장": 6278,
      "##귀": 6279,
      "##흥": 6280,
      "##시키는": 6281,
      "##위에": 6282,
      "##분들": 6283,
      "##교사": 6284,
      "여론": 6285,
      "찬": 6286,
      "촛불": 6287,
      "보니": 6288,
      "육아": 6289,
      "격": 6290,
      "##이자": 6291,
      "않게": 6292,
      "흡연": 6293,
      "##춰": 6294,
      "보건": 6295,
      "##욕": 6296,
      "##마디": 6297,
      "속에서": 6298,
      "##대출": 6299,
      "물어": 6300,
      "안녕하십니까": 6301,
      "학부모": 6302,
      "이유가": 6303,
      "##었는데": 6304,
      "전에": 6305,
      "낭비": 6306,
      "##텐": 6307,
      "심각한": 6308,
      "##부의": 6309,
      "사법": 6310,
      "ids홀딩스": 6311,
      "맞는": 6312,
      "어떠한": 6313,
      "들었습니다": 6314,
      "나라의": 6315,
      "생각하고": 6316,
      "아이들": 6317,
      "##회사": 6318,
      "##하겠습니다": 6319,
      "소방관": 6320,
      "##자에": 6321,
      "게시": 6322,
      "등록": 6323,
      "사이트": 6324,
      "보호법": 6325,
      "증가": 6326,
      "자연": 6327,
      "아니라고": 6328,
      "##자들에게": 6329,
      "생체": 6330,
      "##인에게": 6331,
      "집에": 6332,
      "충분히": 6333,
      "##이면": 6334,
      "##어주": 6335,
      "일삼": 6336,
      "붙": 6337,
      "인천": 6338,
      "참고": 6339,
      "지하": 6340,
      "##병원": 6341,
      "좌": 6342,
      "##든지": 6343,
      "##건가요": 6344,
      "넘어": 6345,
      "##자들을": 6346,
      "##en": 6347,
      "법적": 6348,
      "기사를": 6349,
      "##재판": 6350,
      "개인의": 6351,
      "부당": 6352,
      "##주십시오": 6353,
      "##알": 6354,
      "우리나라의": 6355,
      "평생": 6356,
      "조건": 6357,
      ",,": 6358,
      "마찬": 6359,
      "##보는": 6360,
      "##쉬": 6361,
      "믿고": 6362,
      "##하자": 6363,
      "##년에": 6364,
      "고민": 6365,
      "##셔야": 6366,
      "마땅": 6367,
      "옆": 6368,
      "아닌가요": 6369,
      "##흐": 6370,
      "생명": 6371,
      "미성년": 6372,
      "조치": 6373,
      "학생들이": 6374,
      "시간을": 6375,
      "##ᆷ페이": 6376,
      "넘는": 6377,
      "이름": 6378,
      "일하는": 6379,
      "##비용": 6380,
      "올리": 6381,
      "없어서": 6382,
      "구성": 6383,
      "##제한": 6384,
      "씨": 6385,
      "사망": 6386,
      "##감을": 6387,
      "상당": 6388,
      "그들의": 6389,
      "##안이": 6390,
      "폭력": 6391,
      "수십": 6392,
      "##처리": 6393,
      "자동차": 6394,
      "반려": 6395,
      "혼자": 6396,
      "모두가": 6397,
      "생산": 6398,
      "##포츠": 6399,
      "##es": 6400,
      "부과": 6401,
      "칼": 6402,
      "권력": 6403,
      "##닥": 6404,
      "##말고": 6405,
      "근데": 6406,
      "입주": 6407,
      "##골": 6408,
      "##었던": 6409,
      "##성과": 6410,
      "##중한": 6411,
      "활동": 6412,
      "##처벌": 6413,
      "##출산": 6414,
      "sns": 6415,
      "##셨습니다": 6416,
      "이와": 6417,
      "##적을": 6418,
      "##고를": 6419,
      "경찰서": 6420,
      "##건지": 6421,
      "정도로": 6422,
      "사진": 6423,
      "##경우": 6424,
      "##끔": 6425,
      "##웃": 6426,
      "놓고": 6427,
      "해킹": 6428,
      "##자기": 6429,
      "##부에": 6430,
      "간절": 6431,
      "폐지를": 6432,
      ".(": 6433,
      "노무": 6434,
      "na": 6435,
      "혜택을": 6436,
      "##등을": 6437,
      "자신들의": 6438,
      "12월": 6439,
      "4차": 6440,
      "##민주": 6441,
      "##매매": 6442,
      "인하여": 6443,
      "건축": 6444,
      "##상황": 6445,
      "실제로": 6446,
      "벌어": 6447,
      "마찬가지": 6448,
      "아빠": 6449,
      "한다면": 6450,
      "끼": 6451,
      "빌": 6452,
      "지자체": 6453,
      "더불": 6454,
      "그동안": 6455,
      "자행": 6456,
      "상황에서": 6457,
      "##냐고": 6458,
      "##략": 6459,
      "멀": 6460,
      "어른": 6461,
      "고등학교": 6462,
      "몸": 6463,
      "대다": 6464,
      "남녀": 6465,
      "##프로": 6466,
      "##안전": 6467,
      "##소득": 6468,
      "소속": 6469,
      "늘어나": 6470,
      "주지": 6471,
      "옳": 6472,
      "방문": 6473,
      "예를": 6474,
      "밥": 6475,
      "절실": 6476,
      "하니": 6477,
      "골": 6478,
      "저희는": 6479,
      "##엄": 6480,
      "신경": 6481,
      "합법": 6482,
      "소송": 6483,
      "##감독": 6484,
      "만드는": 6485,
      "매년": 6486,
      "##퍼": 6487,
      "모르고": 6488,
      "벗": 6489,
      "##간의": 6490,
      "##분들이": 6491,
      "##역을": 6492,
      "더불어": 6493,
      "##시아": 6494,
      "그저": 6495,
      "##몰": 6496,
      "##있고": 6497,
      "##상에서": 6498,
      "대해서는": 6499,
      "##나고": 6500,
      "집을": 6501,
      "조합": 6502,
      "남편": 6503,
      ".....": 6504,
      "화가": 6505,
      "등에": 6506,
      "뿐만": 6507,
      "처절한": 6508,
      "문재인대통령님": 6509,
      "##우고": 6510,
      "2018년": 6511,
      "했는데": 6512,
      "성인": 6513,
      "연락": 6514,
      "##하시고": 6515,
      "캐": 6516,
      "##롭": 6517,
      "방향": 6518,
      "60": 6519,
      "##50": 6520,
      "받았습니다": 6521,
      "##받을": 6522,
      "##완": 6523,
      "필요하다고": 6524,
      "##노동": 6525,
      "고문을": 6526,
      "그게": 6527,
      "##하였고": 6528,
      "##겁니까": 6529,
      "약속": 6530,
      "검사": 6531,
      "활용": 6532,
      "##버린": 6533,
      "소리": 6534,
      "초등학교": 6535,
      "기초": 6536,
      "네이": 6537,
      "##맹": 6538,
      "##들로": 6539,
      "나온": 6540,
      "##와서": 6541,
      "##줘야": 6542,
      "횡": 6543,
      "갖고": 6544,
      "끌": 6545,
      "원하는": 6546,
      "##는게": 6547,
      "있으니": 6548,
      "##션": 6549,
      "##납": 6550,
      "국민신문고": 6551,
      "빠른": 6552,
      "집값": 6553,
      "##널": 6554,
      "##대표": 6555,
      "영업": 6556,
      "왔습니다": 6557,
      "##된다고": 6558,
      "##다운": 6559,
      "대신": 6560,
      "진급과": 6561,
      "##가서": 6562,
      "##겠다": 6563,
      "##원으로": 6564,
      "상처": 6565,
      "자신이": 6566,
      "상관": 6567,
      "음주운전": 6568,
      "흥신소": 6569,
      "경찰들의": 6570,
      "~~": 6571,
      "솔": 6572,
      "소유": 6573,
      "ar": 6574,
      "흔": 6575,
      "미세먼지": 6576,
      "22": 6577,
      "사과": 6578,
      "##사항": 6579,
      "확대": 6580,
      "##ec": 6581,
      "특정": 6582,
      "갑질": 6583,
      "이라는": 6584,
      "어찌": 6585,
      "피해가": 6586,
      "##범죄를": 6587,
      "##슈": 6588,
      "두고": 6589,
      "##벼": 6590,
      "발생하고": 6591,
      "##tv": 6592,
      "##앞": 6593,
      "##픈": 6594,
      "교육을": 6595,
      "웃": 6596,
      "##럼프": 6597,
      "누구나": 6598,
      "공동": 6599,
      "사건이": 6600,
      "표현": 6601,
      "안하고": 6602,
      "비로": 6603,
      "버스": 6604,
      "프로그래": 6605,
      "트럼프": 6606,
      "##블": 6607,
      "##청에": 6608,
      "올바": 6609,
      "지원을": 6610,
      "##an": 6611,
      "교수": 6612,
      "##먹고": 6613,
      "##랍니다": 6614,
      "##쁘": 6615,
      "단체": 6616,
      "##왔습니다": 6617,
      "어머니": 6618,
      "정작": 6619,
      "##정권": 6620,
      "기록": 6621,
      "##으면서": 6622,
      "##간에": 6623,
      "선진국": 6624,
      "오직": 6625,
      "##계가": 6626,
      "말입니다": 6627,
      "##시를": 6628,
      "##폭력": 6629,
      "러": 6630,
      "##학을": 6631,
      "##세로": 6632,
      "##안에": 6633,
      "비정규직": 6634,
      "묻고": 6635,
      "이전에": 6636,
      "##지게": 6637,
      "##만한": 6638,
      "##ed": 6639,
      "필요가": 6640,
      "##이니": 6641,
      "##년도": 6642,
      "##복무": 6643,
      "저출산": 6644,
      "경우에는": 6645,
      "##자녀": 6646,
      "성장": 6647,
      "프": 6648,
      "##하려고": 6649,
      "그것도": 6650,
      "조선": 6651,
      "##차가": 6652,
      "듣": 6653,
      "엄벌": 6654,
      "##암": 6655,
      "대한민국이": 6656,
      "제도를": 6657,
      "자리": 6658,
      "실질": 6659,
      "##태를": 6660,
      "노무현": 6661,
      "##뤄": 6662,
      "공공기관": 6663,
      "##이로": 6664,
      "##수록": 6665,
      "##했다고": 6666,
      "장기": 6667,
      "4년": 6668,
      "##봄": 6669,
      "##ᆻ으나": 6670,
      "주십시요": 6671,
      "##득이": 6672,
      "##풍": 6673,
      "##vi": 6674,
      "##야합니다": 6675,
      "##영업": 6676,
      "##롱": 6677,
      "위치": 6678,
      "기회를": 6679,
      "^^": 6680,
      "이상의": 6681,
      "##경제": 6682,
      "투표": 6683,
      "외교": 6684,
      "있기": 6685,
      "##성에": 6686,
      "##넘": 6687,
      "어렵": 6688,
      "도와주세요": 6689,
      "인식": 6690,
      "##품을": 6691,
      "저에게": 6692,
      "##장님": 6693,
      "실험": 6694,
      "단지": 6695,
      "조작": 6696,
      "년": 6697,
      "신체": 6698,
      "넘게": 6699,
      "비리": 6700,
      "##레스": 6701,
      "다양한": 6702,
      "##ᆼ크": 6703,
      "죄를": 6704,
      "마치": 6705,
      "역할": 6706,
      "지도": 6707,
      "##권익": 6708,
      "의문": 6709,
      "단일팀": 6710,
      "여중생": 6711,
      "##비가": 6712,
      "쓴": 6713,
      "##같습니다": 6714,
      "축소": 6715,
      "사용하는": 6716,
      "허위": 6717,
      "눈물": 6718,
      "권리": 6719,
      "##탕": 6720,
      "위해서는": 6721,
      "##없습니다": 6722,
      "##ㅋㅋ": 6723,
      "수정": 6724,
      "통일": 6725,
      "스트": 6726,
      "##눈": 6727,
      "빠져": 6728,
      "사람의": 6729,
      "##중인": 6730,
      "##국입니다": 6731,
      "사유": 6732,
      "일방": 6733,
      "신용": 6734,
      "##지면": 6735,
      "합의": 6736,
      "억울한": 6737,
      "##실이": 6738,
      "실현": 6739,
      "대응": 6740,
      "2차": 6741,
      "##죽": 6742,
      "##단을": 6743,
      "##피해": 6744,
      "##으시": 6745,
      "##정입니다": 6746,
      "서비스": 6747,
      "요청합니다": 6748,
      "##라리": 6749,
      "아예": 6750,
      "그래도": 6751,
      "없었습니다": 6752,
      "접수": 6753,
      "##!!!!": 6754,
      "27": 6755,
      "얼굴": 6756,
      "##줘": 6757,
      "##하지않": 6758,
      "공사": 6759,
      "디": 6760,
      "것에": 6761,
      "안보": 6762,
      "것이고": 6763,
      "대형": 6764,
      "근본": 6765,
      "느껴": 6766,
      "이번에": 6767,
      "70": 6768,
      "##소리": 6769,
      "평범": 6770,
      "혈세를": 6771,
      "이익을": 6772,
      "모르겠습니다": 6773,
      "##워서": 6774,
      "방치": 6775,
      "스포츠": 6776,
      "상황입니다": 6777,
      "묵": 6778,
      "북한의": 6779,
      "##나마": 6780,
      "의무를": 6781,
      "##스ᄏ": 6782,
      "깊": 6783,
      "노출": 6784,
      "의견을": 6785,
      "내고": 6786,
      "쓰레": 6787,
      "건강보험": 6788,
      "##관이": 6789,
      "외국인": 6790,
      "##에서의": 6791,
      "##어날": 6792,
      "20년이": 6793,
      "##하라고": 6794,
      "##대는": 6795,
      "반영": 6796,
      "청소년법": 6797,
      "가능한": 6798,
      "자본": 6799,
      "생각해": 6800,
      "민원이": 6801,
      "처럼": 6802,
      "성공": 6803,
      "네이버": 6804,
      "##농": 6805,
      "생각하는": 6806,
      "갑자기": 6807,
      "나타": 6808,
      "신뢰": 6809,
      "전자": 6810,
      "청산": 6811,
      "대한민국을": 6812,
      "알게": 6813,
      "분들": 6814,
      "계시": 6815,
      "##일4": 6816,
      "첨": 6817,
      "##로인": 6818,
      "폐지해주세요": 6819,
      "병역": 6820,
      "##함이": 6821,
      "##구를": 6822,
      "생체실험": 6823,
      "##으로는": 6824,
      "##분을": 6825,
      "방해": 6826,
      "##꼬": 6827,
      "생존": 6828,
      "28": 6829,
      "##임이": 6830,
      "나오는": 6831,
      "썩어": 6832,
      "쳐": 6833,
      "##르면": 6834,
      "감독": 6835,
      "피해자는": 6836,
      "뇌": 6837,
      "국민은": 6838,
      "재산을": 6839,
      "찍": 6840,
      "##마저": 6841,
      "힘이": 6842,
      "불법만행을": 6843,
      "1월": 6844,
      "가서": 6845,
      "국무": 6846,
      "https": 6847,
      "그러면": 6848,
      "수술": 6849,
      "고객": 6850,
      "차라리": 6851,
      "청소년보호법": 6852,
      "##조치": 6853,
      "##없고": 6854,
      "##렸습니다": 6855,
      "비참": 6856,
      "성폭행": 6857,
      "##정에": 6858,
      "말로": 6859,
      "사람들의": 6860,
      "포항": 6861,
      "그리": 6862,
      "제시": 6863,
      "해야합니다": 6864,
      "키우는": 6865,
      "법은": 6866,
      "졸업": 6867,
      "##지사": 6868,
      "수수": 6869,
      "나아가": 6870,
      "##틀": 6871,
      "수사를": 6872,
      "바꿔": 6873,
      "간절히": 6874,
      "##잖": 6875,
      "##하고자": 6876,
      "힘들게": 6877,
      "듣고": 6878,
      "1인": 6879,
      "##공사": 6880,
      "김관": 6881,
      "##려서": 6882,
      "##업무": 6883,
      "##활동": 6884,
      "##했다는": 6885,
      "##ou": 6886,
      "보도": 6887,
      "##보다는": 6888,
      "빚": 6889,
      "성매매": 6890,
      "##천만원": 6891,
      "북한이": 6892,
      "지정": 6893,
      "곧": 6894,
      "못할": 6895,
      "##발전": 6896,
      "구입": 6897,
      "처벌이": 6898,
      "가해자": 6899,
      "뿐입니다": 6900,
      "유치원": 6901,
      "##브": 6902,
      "##있게": 6903,
      "##겠지요": 6904,
      "##박을": 6905,
      "##칭": 6906,
      "##졌습니다": 6907,
      "어쩔": 6908,
      "계획": 6909,
      "##ea": 6910,
      "인권을": 6911,
      "##글을": 6912,
      "비해": 6913,
      "정책이": 6914,
      "너무나도": 6915,
      "주거": 6916,
      "틀": 6917,
      "감시": 6918,
      "수입": 6919,
      "마음이": 6920,
      "국민권익": 6921,
      "솔직": 6922,
      "제3": 6923,
      "사람입니다": 6924,
      "##내는": 6925,
      "##심으로": 6926,
      "고문과": 6927,
      "이것": 6928,
      "##세가": 6929,
      "달라": 6930,
      "다만": 6931,
      "한사람": 6932,
      "홈페이": 6933,
      "대우": 6934,
      "##상센터": 6935,
      "받게": 6936,
      "##근무": 6937,
      "홍보": 6938,
      "부다": 6939,
      "##이유": 6940,
      "##저히": 6941,
      "제재": 6942,
      "노인": 6943,
      "집행": 6944,
      "##tic": 6945,
      "예비": 6946,
      "예방": 6947,
      "본인이": 6948,
      "상식": 6949,
      "건의": 6950,
      "80": 6951,
      "심리": 6952,
      "##율이": 6953,
      "##염": 6954,
      "촉": 6955,
      "대화": 6956,
      "이송": 6957,
      "공산": 6958,
      "전기": 6959,
      "몰라": 6960,
      "11월": 6961,
      "인구": 6962,
      "이르": 6963,
      "드러": 6964,
      "저지른": 6965,
      "##라인": 6966,
      "일입니다": 6967,
      "일단": 6968,
      "1995": 6969,
      "이라고": 6970,
      "##거라": 6971,
      "공급": 6972,
      "혼란": 6973,
      "##찮": 6974,
      "뭔": 6975,
      "나중에": 6976,
      "##아닌": 6977,
      "##에선": 6978,
      "형량": 6979,
      "니": 6980,
      "##님을": 6981,
      "중앙": 6982,
      "저와": 6983,
      "한국의": 6984,
      "##12": 6985,
      "진정한": 6986,
      "##일2": 6987,
      "사람들에게": 6988,
      "납부": 6989,
      "##ᆻ으며": 6990,
      "대처": 6991,
      "궁금": 6992,
      "뿌": 6993,
      "##폐지": 6994,
      "##텐데": 6995,
      "##한번": 6996,
      "권리를": 6997,
      "녹": 6998,
      "일은": 6999,
      "인권유린과": 7000,
      "##한국": 7001,
      "기능": 7002,
      "고통을": 7003,
      "마시고": 7004,
      "자식": 7005,
      "시청": 7006,
      "확보": 7007,
      "판사": 7008,
      "##기사": 7009,
      "한마디": 7010,
      "분노": 7011,
      "보이": 7012,
      "살기": 7013,
      "앉": 7014,
      "가상화폐를": 7015,
      "허용": 7016,
      "##아주세요": 7017,
      "비스": 7018,
      "있음": 7019,
      "저런": 7020,
      "보내고": 7021,
      "##씬": 7022,
      "##뒤": 7023,
      "퍼": 7024,
      ").": 7025,
      "##있는데": 7026,
      "운동": 7027,
      "철저한": 7028,
      "보입니다": 7029,
      "##잘": 7030,
      "##하에": 7031,
      "있습니까": 7032,
      "또다": 7033,
      "##--------------------------------": 7034,
      "훨": 7035,
      "사무": 7036,
      "강원": 7037,
      "경찰조직": 7038,
      "안된다고": 7039,
      "##촌": 7040,
      "##평가": 7041,
      "##받은": 7042,
      "23": 7043,
      "밤": 7044,
      "##일3": 7045,
      "##던지": 7046,
      "##곳에": 7047,
      "잔인한": 7048,
      "독립": 7049,
      "##께서는": 7050,
      "2016년": 7051,
      "##수사": 7052,
      "여기에": 7053,
      "분야": 7054,
      "##ml": 7055,
      "##맞": 7056,
      "자체가": 7057,
      "평범한": 7058,
      "##bs": 7059,
      "그것이": 7060,
      "##비로": 7061,
      "등으로": 7062,
      "##신청": 7063,
      "의원": 7064,
      "20년": 7065,
      "된다면": 7066,
      "즐": 7067,
      "##하려": 7068,
      "대한민국에서": 7069,
      "전문가": 7070,
      "창출": 7071,
      "정치인": 7072,
      "##문화": 7073,
      "##차별": 7074,
      "##에게는": 7075,
      "동네": 7076,
      "기타": 7077,
      "##구역": 7078,
      "##것으로": 7079,
      "##권이": 7080,
      "##여서": 7081,
      "처우": 7082,
      "석": 7083,
      "##7조": 7084,
      "##지않고": 7085,
      "##ticle": 7086,
      "것이라고": 7087,
      "원치": 7088,
      "내용이": 7089,
      "##팅": 7090,
      "가르": 7091,
      "##상에": 7092,
      "고위": 7093,
      "##반대": 7094,
      "##명한": 7095,
      "국민권익위원회": 7096,
      "##바랍니다": 7097,
      "상승": 7098,
      "##생활을": 7099,
      "있으나": 7100,
      "수업": 7101,
      "대중": 7102,
      "삶을": 7103,
      "둘째": 7104,
      "##들고": 7105,
      "##상으로": 7106,
      "쓰는": 7107,
      "고시일": 7108,
      "들고": 7109,
      "##끌": 7110,
      "시도": 7111,
      "##상태": 7112,
      "시점": 7113,
      "##려야": 7114,
      "th": 7115,
      "##ver": 7116,
      "법으로": 7117,
      "신규": 7118,
      "시스템": 7119,
      "가치": 7120,
      "##법은": 7121,
      "통한": 7122,
      "이국": 7123,
      "##직원": 7124,
      "##망이": 7125,
      "article": 7126,
      "9월": 7127,
      "##자금": 7128,
      "##만에": 7129,
      "알바": 7130,
      "규제를": 7131,
      "경기도": 7132,
      "헌법재판": 7133,
      "내부": 7134,
      "##과는": 7135,
      "없도록": 7136,
      "불합": 7137,
      "동원": 7138,
      "주시길": 7139,
      "html": 7140,
      "아마": 7141,
      "일정": 7142,
      "스트레스": 7143,
      "이익": 7144,
      "내용은": 7145,
      "도움을": 7146,
      "훨씬": 7147,
      "강력히": 7148,
      "괘": 7149,
      "대법": 7150,
      "학교에서": 7151,
      "정해": 7152,
      "부작": 7153,
      "무너": 7154,
      "##마트": 7155,
      "상방": 7156,
      "통과": 7157,
      "했던": 7158,
      "범죄가": 7159,
      "엉": 7160,
      "##랜드": 7161,
      "비교": 7162,
      "임신": 7163,
      "##장으로": 7164,
      "##빨": 7165,
      "보수": 7166,
      "##소송": 7167,
      "##ᆯ리": 7168,
      "그걸": 7169,
      "합격": 7170,
      "힘을": 7171,
      "숙": 7172,
      "공간": 7173,
      "보시": 7174,
      "본인의": 7175,
      "관심": 7176,
      "##로써": 7177,
      "##자도": 7178,
      "수행": 7179,
      "##법에": 7180,
      "나쁜": 7181,
      "##회의": 7182,
      "##76": 7183,
      "##니다": 7184,
      "거부": 7185,
      "##두고": 7186,
      "아닌가": 7187,
      "솔직히": 7188,
      "하는지": 7189,
      "기억": 7190,
      "이국종": 7191,
      "나의": 7192,
      "역사": 7193,
      "법에": 7194,
      "피해자를": 7195,
      "##유공": 7196,
      "방법이": 7197,
      "똑같은": 7198,
      "##펴": 7199,
      "##하는지": 7200,
      "주요": 7201,
      "민원인이": 7202,
      "힘들어": 7203,
      "국방의": 7204,
      "배우": 7205,
      "##대학": 7206,
      "##구나": 7207,
      "대통령의": 7208,
      "일으": 7209,
      "결코": 7210,
      "못합니다": 7211,
      "국가를": 7212,
      "상황을": 7213,
      "##리라": 7214,
      "대구": 7215,
      "출근": 7216,
      "##대책": 7217,
      "현재의": 7218,
      "##춘": 7219,
      "##사법": 7220,
      "의심": 7221,
      "게시판": 7222,
      "##하려는": 7223,
      "최대": 7224,
      "임용": 7225,
      "돌려": 7226,
      ".\"": 7227,
      "90": 7228,
      "##ᆺ습니다": 7229,
      "그들이": 7230,
      "##주시길": 7231,
      "꿈을": 7232,
      "무엇이": 7233,
      "???": 7234,
      "##리면": 7235,
      "김관용": 7236,
      "##시민": 7237,
      "##시간을": 7238,
      "공평": 7239,
      "사회에": 7240,
      "부족한": 7241,
      "##총리": 7242,
      "##십": 7243,
      "내년": 7244,
      "##투자": 7245,
      "문제점": 7246,
      "자랑": 7247,
      "##료가": 7248,
      "파괴": 7249,
      "##묵": 7250,
      "평균": 7251,
      "이슈": 7252,
      "아무것도": 7253,
      "생명을": 7254,
      "카드": 7255,
      "당진": 7256,
      "분명히": 7257,
      "아는": 7258,
      "##들입니다": 7259,
      "##건강": 7260,
      "장난": 7261,
      "##상의": 7262,
      "제정": 7263,
      "않을까": 7264,
      "이동": 7265,
      "일하고": 7266,
      "##속에": 7267,
      "##또한": 7268,
      "하늘": 7269,
      "경기": 7270,
      "조사를": 7271,
      "쪼": 7272,
      "낙태": 7273,
      "뒷": 7274,
      "뉴스를": 7275,
      "국민에게": 7276,
      "법안": 7277,
      "##자리": 7278,
      "다녀": 7279,
      "현대": 7280,
      "통보": 7281,
      "작년": 7282,
      "쓰고": 7283,
      "##롭게": 7284,
      "피고": 7285,
      "##서에": 7286,
      "##금융": 7287,
      "##전히": 7288,
      "철저히": 7289,
      "##됨": 7290,
      "말하는": 7291,
      "##했지만": 7292,
      "##리기": 7293,
      "입법": 7294,
      "##공단": 7295,
      "##책임": 7296,
      "모습을": 7297,
      "인생": 7298,
      "인력": 7299,
      "##아니라": 7300,
      "않습니까": 7301,
      "##깐": 7302,
      "##부탁": 7303,
      "##at": 7304,
      "##주지": 7305,
      "##벌이": 7306,
      "징역": 7307,
      "여러가지": 7308,
      "삼성": 7309,
      "##로는": 7310,
      "특수": 7311,
      "흉": 7312,
      "청소년들이": 7313,
      "목적": 7314,
      "않을까요": 7315,
      "조금이라도": 7316,
      "진술": 7317,
      "그러므로": 7318,
      "무기징": 7319,
      "당사": 7320,
      "했다": 7321,
      "다시는": 7322,
      "러시아": 7323,
      "##건축": 7324,
      "움": 7325,
      "##더라": 7326,
      "##둔": 7327,
      "##리게": 7328,
      "방지": 7329,
      "300": 7330,
      "꺼": 7331,
      "변화": 7332,
      "아버지": 7333,
      "##아도": 7334,
      "##레이": 7335,
      "##멸": 7336,
      "##도시": 7337,
      "##스러운": 7338,
      "10년이": 7339,
      "그렇다면": 7340,
      "팀": 7341,
      "##첨": 7342,
      "자영업": 7343,
      "행사": 7344,
      "효력이": 7345,
      "##건을": 7346,
      "편의": 7347,
      "##싼": 7348,
      "시대": 7349,
      "제1항": 7350,
      "적어도": 7351,
      "김정은": 7352,
      "순간": 7353,
      "하시는": 7354,
      "##등록": 7355,
      "굳": 7356,
      "그나마": 7357,
      "조성": 7358,
      "사회가": 7359,
      "테러": 7360,
      "끔": 7361,
      "##ᆲ은": 7362,
      "##드리고": 7363,
      "합리": 7364,
      "부여": 7365,
      "##금으로": 7366,
      "##실에": 7367,
      "워": 7368,
      "##슬": 7369,
      "안전한": 7370,
      "##스럽게": 7371,
      "법정": 7372,
      "전세계": 7373,
      "방법을": 7374,
      "똑같이": 7375,
      "그들은": 7376,
      "바다": 7377,
      "안전을": 7378,
      "##해주는": 7379,
      "##사용과": 7380,
      "쏘": 7381,
      "가만": 7382,
      "자주": 7383,
      "##률이": 7384,
      "목숨": 7385,
      "##나서": 7386,
      "공부를": 7387,
      "##필요": 7388,
      "불이": 7389,
      "지상": 7390,
      "##년을": 7391,
      "##실에서": 7392,
      "법치": 7393,
      "살아가는": 7394,
      "6개월": 7395,
      "공매": 7396,
      "중단": 7397,
      "곳이": 7398,
      "따로": 7399,
      "슬": 7400,
      "법적으로": 7401,
      "약물사용과": 7402,
      "관심을": 7403,
      "그럼에도": 7404,
      "##장과": 7405,
      "청구": 7406,
      "##로부터": 7407,
      "면접": 7408,
      "##둘": 7409,
      "##주차": 7410,
      "결론": 7411,
      "살아야": 7412,
      "개인정보": 7413,
      "##볼": 7414,
      "경제적": 7415,
      "##도의": 7416,
      "어려우": 7417,
      "##금액": 7418,
      "##소하여": 7419,
      "행동을": 7420,
      "둔": 7421,
      "##40": 7422,
      "##감이": 7423,
      "##소가": 7424,
      "##한국당": 7425,
      "##털": 7426,
      "##다보니": 7427,
      "괜": 7428,
      "근무하는": 7429,
      "답변을": 7430,
      "##18": 7431,
      "공정한": 7432,
      "원합니다": 7433,
      "##아버": 7434,
      "정당한": 7435,
      "있던": 7436,
      "##수로": 7437,
      "##된다면": 7438,
      "군사": 7439,
      "##일까요": 7440,
      "10월": 7441,
      ">>": 7442,
      "정부포": 7443,
      "휴대": 7444,
      "화장": 7445,
      "명백": 7446,
      "##회를": 7447,
      "##달라고": 7448,
      "##했으면": 7449,
      "있을까요": 7450,
      "##악한": 7451,
      "수는": 7452,
      "##산을": 7453,
      "나올": 7454,
      "중학교": 7455,
      "사람도": 7456,
      "##아파트": 7457,
      "수험": 7458,
      "##신고": 7459,
      "직무": 7460,
      "가벼": 7461,
      "##교육을": 7462,
      "품": 7463,
      "통화": 7464,
      "상황에": 7465,
      "올바른": 7466,
      "##일은": 7467,
      "성남": 7468,
      "명예": 7469,
      "휘": 7470,
      "##주가": 7471,
      "##행정": 7472,
      "내는": 7473,
      "능력": 7474,
      "##수있는": 7475,
      "예전": 7476,
      "당연한": 7477,
      "##만의": 7478,
      "불공": 7479,
      "광고": 7480,
      "도시계획": 7481,
      "도저히": 7482,
      "##서가": 7483,
      "##2년": 7484,
      "사교육": 7485,
      "공직": 7486,
      "##었으면": 7487,
      "허가": 7488,
      "나이가": 7489,
      "유해": 7490,
      "재각": 7491,
      "##뿐만": 7492,
      "등이": 7493,
      "겨울": 7494,
      "국토교통부": 7495,
      "지하철": 7496,
      "지적": 7497,
      "아이들의": 7498,
      "##자고": 7499,
      "고등": 7500,
      "통해서": 7501,
      "티": 7502,
      "찬성": 7503,
      "통신": 7504,
      "돈으로": 7505,
      "경우도": 7506,
      "불과한": 7507,
      "##팔": 7508,
      "검색": 7509,
      "식으로": 7510,
      "가게": 7511,
      "##분에": 7512,
      "보여주": 7513,
      "움직": 7514,
      "보통": 7515,
      "사실이": 7516,
      "태어나": 7517,
      "수당": 7518,
      "안내": 7519,
      "영향을": 7520,
      "##을까요": 7521,
      "강요": 7522,
      "토지": 7523,
      "혹시": 7524,
      "##관을": 7525,
      "##권력": 7526,
      "##물질": 7527,
      "##후에": 7528,
      "괴롭": 7529,
      "##힌": 7530,
      "그것을": 7531,
      "상담": 7532,
      "심판": 7533,
      "다니는": 7534,
      "naver": 7535,
      "이끌": 7536,
      "된다는": 7537,
      "세월호": 7538,
      "2013": 7539,
      "##하키": 7540,
      "##제는": 7541,
      "아침": 7542,
      "대비": 7543,
      "보면서": 7544,
      "2014": 7545,
      "종사": 7546,
      "뻔": 7547,
      "본다": 7548,
      "희망을": 7549,
      "미처": 7550,
      "##주시고": 7551,
      "제일": 7552,
      "##하루": 7553,
      "##으로부터": 7554,
      "완전범죄를": 7555,
      "##놈": 7556,
      "맞지": 7557,
      "##걸로": 7558,
      "##나가": 7559,
      "다가": 7560,
      "어쩌": 7561,
      "##차량": 7562,
      "##둥": 7563,
      "복무": 7564,
      "자유한국당": 7565,
      "##익이": 7566,
      "대상으로": 7567,
      "교통사고": 7568,
      "미리": 7569,
      "위원": 7570,
      "덜": 7571,
      "중증": 7572,
      "금융감독": 7573,
      "00": 7574,
      "사고가": 7575,
      "##하라는": 7576,
      "형평": 7577,
      "##거래소": 7578,
      "대북": 7579,
      "사실상": 7580,
      "강력하게": 7581,
      "##인과": 7582,
      "##원합니다": 7583,
      "##16": 7584,
      "걷": 7585,
      "방과": 7586,
      "세금으로": 7587,
      "기준으로": 7588,
      "어리": 7589,
      "같다": 7590,
      "##안부": 7591,
      "효력을": 7592,
      "쓰레기": 7593,
      "양성": 7594,
      "정도의": 7595,
      "정확한": 7596,
      "과정에서": 7597,
      "##단이": 7598,
      "인지": 7599,
      "중에": 7600,
      "##공개": 7601,
      "##양이": 7602,
      "언급": 7603,
      "그래야": 7604,
      "박탈": 7605,
      "저질": 7606,
      "##no": 7607,
      "고생": 7608,
      "강간": 7609,
      "민원이송": 7610,
      "##휘": 7611,
      "일삼고": 7612,
      "염": 7613,
      "썩을": 7614,
      "##지마": 7615,
      "자세": 7616,
      "##19": 7617,
      "것이며": 7618,
      "##훈련": 7619,
      "비싸": 7620,
      "수립": 7621,
      "아이들은": 7622,
      "2015년": 7623,
      "가야": 7624,
      "것과": 7625,
      "연금": 7626,
      "학생들은": 7627,
      "실패": 7628,
      "센": 7629,
      "입학": 7630,
      "사건에": 7631,
      "투자를": 7632,
      "여성가족": 7633,
      "##해주십시오": 7634,
      "재판소에": 7635,
      "##et": 7636,
      "##거죠": 7637,
      "##낸": 7638,
      "##국의": 7639,
      "경찰청": 7640,
      "범죄전문": 7641,
      "이사": 7642,
      "수밖에": 7643,
      "##행이": 7644,
      "방식": 7645,
      "##몇": 7646,
      "첫째": 7647,
      "뜻": 7648,
      "##가입": 7649,
      "국제사법": 7650,
      "수백": 7651,
      "제소하여": 7652,
      "##고시": 7653,
      "##가능": 7654,
      "주어": 7655,
      "도시공원": 7656,
      "##해서는": 7657,
      "근로자": 7658,
      "잊": 7659,
      "지불": 7660,
      "##물이": 7661,
      "학생들의": 7662,
      "##도는": 7663,
      "연라": 7664,
      "설립": 7665,
      "사리사욕에": 7666,
      "##님의": 7667,
      "7월": 7668,
      "조정": 7669,
      "##져서": 7670,
      "와서": 7671,
      "지키지": 7672,
      "cc": 7673,
      "##au": 7674,
      "##하네요": 7675,
      "미사": 7676,
      "앞에": 7677,
      "존중": 7678,
      "##시킬": 7679,
      "##지않는": 7680,
      "법원": 7681,
      "명확": 7682,
      "mb": 7683,
      "않으": 7684,
      "의혹": 7685,
      "이야기를": 7686,
      "낮은": 7687,
      "여기서": 7688,
      "##사로": 7689,
      "바라는": 7690,
      "##일6": 7691,
      "많고": 7692,
      "것이라": 7693,
      "##용이": 7694,
      "조차": 7695,
      "겨우": 7696,
      "져": 7697,
      "##을수": 7698,
      "그것": 7699,
      "##자격": 7700,
      "##년간": 7701,
      "취소": 7702,
      "만들어주세요": 7703,
      "반성": 7704,
      "##하기도": 7705,
      "국민연금": 7706,
      "집에서": 7707,
      "늘려": 7708,
      "대학교": 7709,
      "##앗": 7710,
      "나머": 7711,
      "하지않": 7712,
      "##0만원": 7713,
      "##하는것이": 7714,
      "성적": 7715,
      "##힘": 7716,
      "했고": 7717,
      "사립": 7718,
      "접근": 7719,
      "대책을": 7720,
      "원칙에": 7721,
      "##였": 7722,
      "##시킨": 7723,
      "##인증": 7724,
      "변호사": 7725,
      "##사람이": 7726,
      "##view": 7727,
      "그러니": 7728,
      "##부에서": 7729,
      "주말": 7730,
      "주셨으면": 7731,
      "##받지": 7732,
      "아니다": 7733,
      "다름": 7734,
      "##전을": 7735,
      "적은": 7736,
      "문제로": 7737,
      "취득": 7738,
      "##억원": 7739,
      "공포": 7740,
      "추천": 7741,
      "끔찍": 7742,
      "이뤄": 7743,
      "피해자의": 7744,
      "##율을": 7745,
      "전달": 7746,
      "살펴": 7747,
      "##스하키": 7748,
      "##대상": 7749,
      "밖": 7750,
      "적이": 7751,
      "##좋은": 7752,
      "##퓨": 7753,
      "##인권": 7754,
      "세워": 7755,
      "경찰은": 7756,
      "태극": 7757,
      "연차": 7758,
      "맞추": 7759,
      "적극적으로": 7760,
      "##hd": 7761,
      "##결과": 7762,
      "끝나": 7763,
      "쪽": 7764,
      "##등의": 7765,
      "강한": 7766,
      "##운영": 7767,
      "제도가": 7768,
      "##정으로": 7769,
      "자료": 7770,
      "과학": 7771,
      "새벽": 7772,
      "전화를": 7773,
      "무료": 7774,
      "목적으로": 7775,
      "15만": 7776,
      "받으": 7777,
      "학원": 7778,
      "올린": 7779,
      "권한": 7780,
      "국정원": 7781,
      "##차례": 7782,
      "활성화": 7783,
      "방안": 7784,
      "36": 7785,
      "인재": 7786,
      "##당시": 7787,
      "tv": 7788,
      "##어를": 7789,
      "그러한": 7790,
      "##근로": 7791,
      "받을수": 7792,
      "동일한": 7793,
      "##시대": 7794,
      "모른": 7795,
      "##조의": 7796,
      "##껏": 7797,
      "예상": 7798,
      "##었지만": 7799,
      "대통령님께서": 7800,
      "논란": 7801,
      "부처": 7802,
      "공익": 7803,
      "##신을": 7804,
      "강조": 7805,
      "성과": 7806,
      "하나로": 7807,
      "##분별": 7808,
      "##형을": 7809,
      "배려": 7810,
      "돌봄": 7811,
      "##에요": 7812,
      "##렸": 7813,
      "수익": 7814,
      "펼": 7815,
      "개입": 7816,
      "##역시": 7817,
      "그럴": 7818,
      "##주십시요": 7819,
      "##룹": 7820,
      "없게": 7821,
      "##구가": 7822,
      "##운동": 7823,
      "##ᆫ트": 7824,
      "하더라도": 7825,
      "선고": 7826,
      "죽을": 7827,
      "부분이": 7828,
      "단순히": 7829,
      "##협회": 7830,
      "기간제": 7831,
      "겁니까": 7832,
      "관련하여": 7833,
      "무기징역": 7834,
      "cctv": 7835,
      "##히고": 7836,
      "풍": 7837,
      "##오고": 7838,
      "금감": 7839,
      "살해위협과": 7840,
      "혁": 7841,
      "듯": 7842,
      "존재하지": 7843,
      "##스쿨": 7844,
      "없는데": 7845,
      "인증": 7846,
      "못해": 7847,
      "구분": 7848,
      "##했을": 7849,
      "##규모": 7850,
      "징계": 7851,
      "##량한": 7852,
      "그렇지": 7853,
      "##스크": 7854,
      "##기와": 7855,
      "유일": 7856,
      "납니다": 7857,
      "해보": 7858,
      "가상화폐에": 7859,
      "앞서": 7860,
      "양육": 7861,
      "지상파": 7862,
      "최초": 7863,
      "컴": 7864,
      "##섭": 7865,
      "##복을": 7866,
      "가능성이": 7867,
      "그렇다고": 7868,
      "대통령은": 7869,
      "##받아": 7870,
      "##싶습니다": 7871,
      "다들": 7872,
      "형태": 7873,
      "하루하루": 7874,
      "##사이트": 7875,
      "세상이": 7876,
      "##별로": 7877,
      "출소를": 7878,
      "이거": 7879,
      "것인지": 7880,
      "##잖아요": 7881,
      "##70": 7882,
      "##억이": 7883,
      "##세력": 7884,
      "##일5": 7885,
      "간호": 7886,
      "목소": 7887,
      "되었고": 7888,
      "논의": 7889,
      "##기만": 7890,
      "경력": 7891,
      "잡아": 7892,
      "신고를": 7893,
      "조치를": 7894,
      "낸": 7895,
      "비상": 7896,
      "정신적": 7897,
      "사태": 7898,
      "지시": 7899,
      "전면": 7900,
      "##에게도": 7901,
      "남아": 7902,
      "아이의": 7903,
      "계산": 7904,
      "##ᅰ손": 7905,
      "##해야할": 7906,
      "##15": 7907,
      "하는게": 7908,
      "경우는": 7909,
      "완벽": 7910,
      "##침해": 7911,
      "##기위해": 7912,
      "아니한": 7913,
      "##급이": 7914,
      "##텔": 7915,
      "명시": 7916,
      "평창올림픽": 7917,
      "##세대": 7918,
      "이나라": 7919,
      "생을": 7920,
      "##튼": 7921,
      "##하나요": 7922,
      "핸드": 7923,
      "실망": 7924,
      "어떨": 7925,
      "##버스": 7926,
      "##느냐": 7927,
      "난임": 7928,
      "##카드": 7929,
      "여전히": 7930,
      "##단계": 7931,
      "호소": 7932,
      "##흡": 7933,
      "나누": 7934,
      "넘어가": 7935,
      "누군가": 7936,
      "이행": 7937,
      "마시": 7938,
      "규정에": 7939,
      "정부포상": 7940,
      "##고가": 7941,
      "##면허": 7942,
      "때는": 7943,
      "##까지도": 7944,
      "입장에서": 7945,
      "방과후": 7946,
      "##랄": 7947,
      "##하겠": 7948,
      "그건": 7949,
      "신분": 7950,
      "통하여": 7951,
      "##들에게는": 7952,
      "##is": 7953,
      "그만큼": 7954,
      "부당한": 7955,
      "##동물": 7956,
      "높아": 7957,
      "하던": 7958,
      "하셨": 7959,
      "##읍니다": 7960,
      "##주셨으면": 7961,
      "외면": 7962,
      "무시하고": 7963,
      "8월": 7964,
      "##하는것": 7965,
      "20대": 7966,
      "비판": 7967,
      "나라는": 7968,
      "교육청": 7969,
      "휴대폰": 7970,
      "##지방": 7971,
      "##위의": 7972,
      "맞습니까": 7973,
      "##하셨": 7974,
      "##요일": 7975,
      "문대통령": 7976,
      "##비리": 7977,
      "왜냐": 7978,
      "떼": 7979,
      "소중한": 7980,
      "비싼": 7981,
      "규모": 7982,
      "일어나는": 7983,
      "봉사": 7984,
      "##위한": 7985,
      "##하기에": 7986,
      "있었던": 7987,
      "##선수": 7988,
      "이상한": 7989,
      "갚": 7990,
      "##주시기": 7991,
      "##해지고": 7992,
      "간단": 7993,
      "##북동": 7994,
      "달리": 7995,
      "##로인해": 7996,
      "##쯤": 7997,
      "##대학교": 7998,
      "##풀": 7999,
      "##금과": 8000,
      "옮": 8001,
      "##님들": 8002,
      "진실": 8003,
      "탄핵": 8004,
      "이기": 8005,
      "면허": 8006,
      "가하면서": 8007,
      "개최": 8008,
      "##까지는": 8009,
      "하나의": 8010,
      "pe": 8011,
      "실정입니다": 8012,
      "선발": 8013,
      "번호": 8014,
      "##ent": 8015,
      "##개선": 8016,
      "목표": 8017,
      "쌓": 8018,
      "##소시": 8019,
      "6월": 8020,
      "정부와": 8021,
      "줄어들": 8022,
      "어제": 8023,
      "무분별": 8024,
      "##건설": 8025,
      "왕": 8026,
      "가상화폐는": 8027,
      "사실입니다": 8028,
      "##도에": 8029,
      "##명으로": 8030,
      "미국의": 8031,
      "수용": 8032,
      "되었으면": 8033,
      "it": 8034,
      "됩니까": 8035,
      "삼북동": 8036,
      "##쇼": 8037,
      "##어린": 8038,
      "##하실": 8039,
      "사람들도": 8040,
      "결과를": 8041,
      "해소": 8042,
      "실행": 8043,
      "무죄": 8044,
      "새로": 8045,
      "##더라구요": 8046,
      "색": 8047,
      "윤": 8048,
      "냉": 8049,
      "인건": 8050,
      "연결": 8051,
      "##핑": 8052,
      "법무부장관": 8053,
      "##속에서": 8054,
      "##구조": 8055,
      "엄벌에": 8056,
      "감소": 8057,
      "딱": 8058,
      "절차": 8059,
      "힘듭니다": 8060,
      "오후": 8061,
      "대통령님께": 8062,
      "##끼리": 8063,
      "관광": 8064,
      "곳에": 8065,
      "국무총리": 8066,
      "레": 8067,
      "##뉴스": 8068,
      "##ᆺ째": 8069,
      "##상은": 8070,
      "공식": 8071,
      "여성의": 8072,
      "핸드폰": 8073,
      "##조합": 8074,
      "관심이": 8075,
      "협의": 8076,
      "##제도를": 8077,
      "무능": 8078,
      "작업": 8079,
      "양도": 8080,
      "맘": 8081,
      "제천": 8082,
      "##너지": 8083,
      "uhd": 8084,
      "##ㅡㅡ": 8085,
      "통합": 8086,
      "쉽": 8087,
      "가계": 8088,
      "##위가": 8089,
      "관계없이": 8090,
      "##납니다": 8091,
      "##분들은": 8092,
      "마음을": 8093,
      "발의": 8094,
      "##품이": 8095,
      "길을": 8096,
      "링크": 8097,
      "##ons": 8098,
      "빛": 8099,
      "참으로": 8100,
      "##하는거": 8101,
      "부서": 8102,
      "재건축": 8103,
      "##말로": 8104,
      "얼마전": 8105,
      "보았습니다": 8106,
      "##법으로": 8107,
      "피눈": 8108,
      "##청원": 8109,
      "##미니": 8110,
      "1차": 8111,
      "##해요": 8112,
      "있어도": 8113,
      "원래": 8114,
      "뛰어": 8115,
      "비참하게": 8116,
      "저질러": 8117,
      "##od": 8118,
      "혐의": 8119,
      "다니고": 8120,
      "##과정": 8121,
      "민족": 8122,
      "두번": 8123,
      "공원조성계획이": 8124,
      "##이든": 8125,
      "재심": 8126,
      "범죄에": 8127,
      "읽어": 8128,
      "##한지": 8129,
      "##출국": 8130,
      "서민들": 8131,
      "##지기": 8132,
      "압니다": 8133,
      "##자치": 8134,
      "보조": 8135,
      "인원": 8136,
      "##하지도": 8137,
      "아이들에게": 8138,
      "종합": 8139,
      "가까운": 8140,
      "교체": 8141,
      "좋을": 8142,
      "운영하는": 8143,
      "썩을대로": 8144,
      "##혈": 8145,
      "부끄": 8146,
      "인간이": 8147,
      "자격증": 8148,
      "##80": 8149,
      "다를": 8150,
      "저희가": 8151,
      "쥐": 8152,
      "진료": 8153,
      "마음에": 8154,
      "##자료": 8155,
      "대리": 8156,
      "발견": 8157,
      "국가범죄": 8158,
      "않는다": 8159,
      "언제까지": 8160,
      "##의로": 8161,
      "표시": 8162,
      "일자리를": 8163,
      "수험생": 8164,
      "##겁": 8165,
      "유도": 8166,
      "원전": 8167,
      "##촉": 8168,
      "볼수": 8169,
      "키우고": 8170,
      "##떠": 8171,
      "대학생": 8172,
      "##하다가": 8173,
      "무엇을": 8174,
      "##국에서": 8175,
      "우리나라가": 8176,
      "있었는데": 8177,
      "제17조": 8178,
      "pr": 8179,
      "##느라": 8180,
      "##싶은": 8181,
      "정보를": 8182,
      "##전용": 8183,
      "##조정": 8184,
      "민주당": 8185,
      "원수": 8186,
      "사건은": 8187,
      "절대로": 8188,
      "게다가": 8189,
      "기자": 8190,
      "일주": 8191,
      "다음과": 8192,
      "굳이": 8193,
      "##기의": 8194,
      "시골": 8195,
      "제품": 8196,
      "##득을": 8197,
      "##권의": 8198,
      "배치": 8199,
      "공원결": 8200,
      "idx": 8201,
      "##들만의": 8202,
      "##퓨터": 8203,
      "출전": 8204,
      "사회를": 8205,
      "정치적": 8206,
      "세상에서": 8207,
      "거기에": 8208,
      "명목": 8209,
      "스마트": 8210,
      "시험을": 8211,
      "육아휴": 8212,
      "##라서": 8213,
      "말은": 8214,
      "당하고": 8215,
      "하다": 8216,
      "##제안": 8217,
      "##신이": 8218,
      "구체": 8219,
      "청원드립니다": 8220,
      "로스쿨": 8221,
      "누구를": 8222,
      "밑": 8223,
      "올림피": 8224,
      "매매": 8225,
      "파악": 8226,
      "커녕": 8227,
      "직장인": 8228,
      "있는게": 8229,
      "많은데": 8230,
      "특혜": 8231,
      "했다고": 8232,
      "뭐가": 8233,
      "폭행사건": 8234,
      "1억": 8235,
      "3개월": 8236,
      "##ᆷ방": 8237,
      "아울": 8238,
      "제목": 8239,
      "##폭행": 8240,
      "광주": 8241,
      "당한": 8242,
      "현실을": 8243,
      "읽어주": 8244,
      "idxno": 8245,
      "웨": 8246,
      "##까봐": 8247,
      "##적으로는": 8248,
      "연봉": 8249,
      "따르면": 8250,
      "투명": 8251,
      "##부처": 8252,
      "##제에": 8253,
      "조장": 8254,
      "유리": 8255,
      "##선거": 8256,
      "사회의": 8257,
      "벌을": 8258,
      "바로서": 8259,
      "굉": 8260,
      "정상적인": 8261,
      "거기": 8262,
      "줄여": 8263,
      "##치지": 8264,
      "업무를": 8265,
      "##31": 8266,
      "##나게": 8267,
      "공약": 8268,
      "안되고": 8269,
      "##건데": 8270,
      "##위로": 8271,
      "선량한": 8272,
      "일어나고": 8273,
      "뭘": 8274,
      "법조": 8275,
      "24시간": 8276,
      "##갑": 8277,
      "##구에": 8278,
      "문의": 8279,
      "대통령님이": 8280,
      "##어버": 8281,
      "공인": 8282,
      "##물로": 8283,
      "독극": 8284,
      "##ᆻ을때": 8285,
      "##여중생": 8286,
      "퇴근": 8287,
      "실업": 8288,
      "##tions": 8289,
      "4대": 8290,
      "막을": 8291,
      "공기업": 8292,
      "신설": 8293,
      "촉구": 8294,
      "사업을": 8295,
      "가격이": 8296,
      "500": 8297,
      "다름이": 8298,
      "빼앗": 8299,
      "##금은": 8300,
      "공유": 8301,
      "2번": 8302,
      "대기": 8303,
      "##륜": 8304,
      "꼴": 8305,
      "##물에": 8306,
      "서울시": 8307,
      "##임에도": 8308,
      "깨끄": 8309,
      "articleview": 8310,
      "##릉": 8311,
      "##등이": 8312,
      "아이디": 8313,
      "연기": 8314,
      "##봐야": 8315,
      "택시": 8316,
      "살해위협을": 8317,
      "입니까": 8318,
      "참조": 8319,
      "무고죄": 8320,
      "최저시": 8321,
      "##행위를": 8322,
      "##한데": 8323,
      "##치료": 8324,
      "연예": 8325,
      "머리": 8326,
      "벗어나": 8327,
      "헌법재판소": 8328,
      "바입니다": 8329,
      "매달": 8330,
      "키워": 8331,
      "##령을": 8332,
      "동성": 8333,
      "##운데": 8334,
      "연장": 8335,
      "답을": 8336,
      "재벌": 8337,
      "매번": 8338,
      "요구합니다": 8339,
      "##tu": 8340,
      "공권력": 8341,
      "##부부": 8342,
      "되는데": 8343,
      "젊은이": 8344,
      "##지와": 8345,
      "유아": 8346,
      "후에": 8347,
      "##것이다": 8348,
      "어렵습니다": 8349,
      "##지침": 8350,
      "인생을": 8351,
      "##면을": 8352,
      "생각해보": 8353,
      "##터리": 8354,
      "세무": 8355,
      "##심판": 8356,
      "역할을": 8357,
      "그것은": 8358,
      "선정": 8359,
      "투입": 8360,
      "공무원이": 8361,
      "이젠": 8362,
      "##교수": 8363,
      "처절": 8364,
      "계신": 8365,
      "책임이": 8366,
      "행위를": 8367,
      "이혼": 8368,
      "세대": 8369,
      "사회에서": 8370,
      "##면서도": 8371,
      "##ecd": 8372,
      "사전": 8373,
      "##스럽습니다": 8374,
      "지속적으로": 8375,
      "##edi": 8376,
      "괜찮": 8377,
      "##내에": 8378,
      "##있다": 8379,
      "체험": 8380,
      "##ᆷ으로": 8381,
      "살려": 8382,
      "확정": 8383,
      "미성년자": 8384,
      "익": 8385,
      "##속히": 8386,
      "분들은": 8387,
      "모르겠": 8388,
      "##리며": 8389,
      "법인": 8390,
      "##르지": 8391,
      "정부에": 8392,
      "맞게": 8393,
      "##퇴근": 8394,
      "비슷한": 8395,
      "클": 8396,
      "노력을": 8397,
      "유사": 8398,
      "몇년": 8399,
      "무서운": 8400,
      "자살을": 8401,
      "초등학생": 8402,
      "oecd": 8403,
      "공문": 8404,
      "##급여": 8405,
      "핵심": 8406,
      "보며": 8407,
      "공감": 8408,
      "한국은": 8409,
      "과태": 8410,
      "성실": 8411,
      "발생한": 8412,
      "<<": 8413,
      "##으신": 8414,
      "##개를": 8415,
      "##해주시길": 8416,
      "아울러": 8417,
      "굉장": 8418,
      "##비는": 8419,
      "동영": 8420,
      "필수": 8421,
      "대통령님의": 8422,
      "가치를": 8423,
      "기득": 8424,
      "##왕": 8425,
      "모릅니다": 8426,
      "복잡": 8427,
      "순경": 8428,
      "방법으로": 8429,
      "흘러": 8430,
      "상당히": 8431,
      "센터": 8432,
      "시달": 8433,
      "모자": 8434,
      "소음": 8435,
      "신호": 8436,
      "했지만": 8437,
      "가상화폐가": 8438,
      "미래가": 8439,
      "문재인대통령님과": 8440,
      "개인이": 8441,
      "재난": 8442,
      ",,,": 8443,
      "the": 8444,
      "##렇게": 8445,
      "내놓": 8446,
      "진입": 8447,
      "추구": 8448,
      "즉시": 8449,
      "##it": 8450,
      "시절": 8451,
      "차이가": 8452,
      "척": 8453,
      "축구": 8454,
      "##소에서": 8455,
      "최대한": 8456,
      "고등학생": 8457,
      "##되며": 8458,
      "##유치": 8459,
      "##해를": 8460,
      "##통을": 8461,
      "통제": 8462,
      "치료를": 8463,
      "시세": 8464,
      "##수준": 8465,
      "기반": 8466,
      "것처럼": 8467,
      "없으면": 8468,
      "불러": 8469,
      "##선생": 8470,
      "분위": 8471,
      "정책은": 8472,
      "갈취": 8473,
      "마음으로": 8474,
      "완전히": 8475,
      "안될": 8476,
      "##당하고": 8477,
      "협력": 8478,
      "peti": 8479,
      "차단": 8480,
      "##정부의": 8481,
      "보건복지": 8482,
      "##곳이": 8483,
      "you": 8484,
      "##ar": 8485,
      "##1년": 8486,
      "바래": 8487,
      "##관은": 8488,
      "##축은행": 8489,
      "다음날": 8490,
      "##빨리": 8491,
      "남은": 8492,
      "심사": 8493,
      "번째": 8494,
      "과목": 8495,
      "##먹는": 8496,
      "들여": 8497,
      "심한": 8498,
      "기본적인": 8499,
      "컴퓨터": 8500,
      "***": 8501,
      "##================": 8502,
      "##이야": 8503,
      "세상을": 8504,
      "다시한번": 8505,
      "엄격": 8506,
      "##보다도": 8507,
      "학교에": 8508,
      "막대한": 8509,
      "혈세로": 8510,
      "주시기를": 8511,
      "죽는": 8512,
      "##해주셨으면": 8513,
      "##혜택": 8514,
      "생활을": 8515,
      "##................": 8516,
      "##자입니다": 8517,
      "잘못을": 8518,
      "##해주시고": 8519,
      "이들이": 8520,
      "##았다": 8521,
      "눈치": 8522,
      "##정도로": 8523,
      "##랙": 8524,
      "##지의": 8525,
      "도지": 8526,
      "대한민국에": 8527,
      "마지막으로": 8528,
      "##서도": 8529,
      "해석": 8530,
      "세력": 8531,
      "어려워": 8532,
      "봐도": 8533,
      "##tion": 8534,
      "petitions": 8535,
      "사드": 8536,
      "감정": 8537,
      "정의로운": 8538,
      "##푼": 8539,
      "##용을": 8540,
      "계급": 8541,
      "사회복지": 8542,
      "자꾸": 8543,
      "행태": 8544,
      "문제입니다": 8545,
      "효율": 8546,
      "부산여중생": 8547,
      "##스러": 8548,
      "시대에": 8549,
      "고속": 8550,
      "##분양": 8551,
      "차지": 8552,
      "들이": 8553,
      "최종": 8554,
      "보기": 8555,
      "되기": 8556,
      "로또": 8557,
      "징병": 8558,
      "일으키": 8559,
      "데이": 8560,
      "없지만": 8561,
      "##졸": 8562,
      "더더": 8563,
      "어차": 8564,
      "##국이": 8565,
      "비난": 8566,
      "몇몇": 8567,
      "보지": 8568,
      "강제로": 8569,
      "각하": 8570,
      "미래의": 8571,
      "좀더": 8572,
      "비롯한": 8573,
      "시각": 8574,
      "사람에게": 8575,
      "학대": 8576,
      "##곳에서": 8577,
      "응급": 8578,
      "##없다": 8579,
      "##이었습니다": 8580,
      "수급": 8581,
      "##드려": 8582,
      "##었다고": 8583,
      "나라에": 8584,
      "했으면": 8585,
      "##시스테": 8586,
      "##사무": 8587,
      "사기꾼": 8588,
      "어차피": 8589,
      "##이에": 8590,
      "##어진": 8591,
      "위에": 8592,
      "##님은": 8593,
      "아기": 8594,
      "고마": 8595,
      "일상": 8596,
      "솜방": 8597,
      "##았고": 8598,
      "임산": 8599,
      "##29": 8600,
      "##인들": 8601,
      "##받아야": 8602,
      "감사하겠습니다": 8603,
      "정의가": 8604,
      "medi": 8605,
      "현장에서": 8606,
      "##연히": 8607,
      "형편": 8608,
      "##할수있는": 8609,
      "4차산업": 8610,
      "정리": 8611,
      "나ᄂ": 8612,
      "상위": 8613,
      "범죄천": 8614,
      "##리로": 8615,
      "국가와": 8616,
      "##~~~~~~~~": 8617,
      "대다수": 8618,
      "##기록": 8619,
      "값": 8620,
      "##구니": 8621,
      "##체가": 8622,
      "##트를": 8623,
      "가족이": 8624,
      "##긋": 8625,
      "올리는": 8626,
      "코스": 8627,
      "교원": 8628,
      "국가는": 8629,
      "북한을": 8630,
      "세상에": 8631,
      "초과": 8632,
      "부족해서": 8633,
      "##이죠": 8634,
      "##붙": 8635,
      "부부": 8636,
      "##성은": 8637,
      "##때문": 8638,
      "공원조성계획": 8639,
      "3월": 8640,
      "##는거": 8641,
      "공격": 8642,
      "반면": 8643,
      "정부를": 8644,
      "영화": 8645,
      "민원인의": 8646,
      "##만원을": 8647,
      "학교폭력": 8648,
      "처절했던": 8649,
      "go": 8650,
      "자기가": 8651,
      "학교를": 8652,
      "끝까지": 8653,
      "삶의": 8654,
      "시스템을": 8655,
      "아르": 8656,
      "##금의": 8657,
      "증명": 8658,
      "시키고": 8659,
      "##인으로": 8660,
      "##우스": 8661,
      "무지": 8662,
      "하나도": 8663,
      "##시켜야": 8664,
      "만들어서": 8665,
      "##감사": 8666,
      "애국": 8667,
      "##시켜주세요": 8668,
      "어느정도": 8669,
      "##가격": 8670,
      "않는다면": 8671,
      "양심": 8672,
      "의무화": 8673,
      "나머지": 8674,
      "##상공": 8675,
      "없으니": 8676,
      "일어난": 8677,
      "묶": 8678,
      "이유를": 8679,
      "##시간이": 8680,
      "갈수록": 8681,
      "기준을": 8682,
      "강아": 8683,
      "물건": 8684,
      "박상": 8685,
      "미래는": 8686,
      "상태에서": 8687,
      "##ᆼ한": 8688,
      "##되기": 8689,
      "##하겠다는": 8690,
      "##괄": 8691,
      "보완": 8692,
      "수단": 8693,
      "입고": 8694,
      "김정": 8695,
      "벌써": 8696,
      "중고": 8697,
      "요양": 8698,
      "방안을": 8699,
      "아이스하키": 8700,
      "은폐": 8701,
      "보훈": 8702,
      "고쳐": 8703,
      "당당": 8704,
      "시행일": 8705,
      "브": 8706,
      "##게는": 8707,
      "수요": 8708,
      "변호": 8709,
      "용역": 8710,
      "##에대한": 8711,
      "몸이": 8712,
      "##al": 8713,
      "굉장히": 8714,
      "컨": 8715,
      "주도": 8716,
      "생긴": 8717,
      "옛": 8718,
      "##시간에": 8719,
      "##갑니다": 8720,
      "##하겠다고": 8721,
      "국가기관": 8722,
      "남기": 8723,
      "멈": 8724,
      "##렬": 8725,
      "고향": 8726,
      "간호사": 8727,
      "##해주고": 8728,
      "한심": 8729,
      "##바이트": 8730,
      "헛": 8731,
      "##검사": 8732,
      "##유공자": 8733,
      "##ᆷ오": 8734,
      "압박": 8735,
      "거쳐": 8736,
      "##부장관": 8737,
      "차원에서": 8738,
      "북한에": 8739,
      "현실이": 8740,
      "서민들이": 8741,
      "상대적": 8742,
      "##어져": 8743,
      "##야할": 8744,
      "자율": 8745,
      "재정": 8746,
      "##았는데": 8747,
      "가해자가": 8748,
      "카페": 8749,
      "제조": 8750,
      "우울": 8751,
      "분이": 8752,
      "도시계획시설": 8753,
      "하세요": 8754,
      "##히는": 8755,
      "삼성화": 8756,
      "##고의": 8757,
      "위안부": 8758,
      "폐기": 8759,
      "주시고": 8760,
      "뉴": 8761,
      "##74": 8762,
      "##라이": 8763,
      "점을": 8764,
      "많을": 8765,
      "가까이": 8766,
      "더더욱": 8767,
      "xx": 8768,
      "객": 8769,
      "무관": 8770,
      "##마자": 8771,
      "여성이": 8772,
      "이상이": 8773,
      "환불": 8774,
      "4번": 8775,
      "##녁": 8776,
      "막고": 8777,
      "비용을": 8778,
      "삼성화재": 8779,
      "있나요": 8780,
      "있겠지만": 8781,
      "##때는": 8782,
      "나라다운": 8783,
      "여러번": 8784,
      "체육": 8785,
      "##하더라도": 8786,
      "이것을": 8787,
      "하거나": 8788,
      "##수저": 8789,
      "고작": 8790,
      "솜방망이": 8791,
      "알아서": 8792,
      "30대": 8793,
      "최소한의": 8794,
      "일방적으로": 8795,
      "부담이": 8796,
      "35": 8797,
      "곤": 8798,
      "지침": 8799,
      "##소년": 8800,
      "조항": 8801,
      "될수": 8802,
      "이용하는": 8803,
      "힘들고": 8804,
      "보이지": 8805,
      "방식으로": 8806,
      "도움": 8807,
      "이래": 8808,
      "이웃": 8809,
      "가산": 8810,
      "##때마다": 8811,
      "청소년이": 8812,
      "타고": 8813,
      "말이죠": 8814,
      "존재하는": 8815,
      "##해주시기": 8816,
      "대변": 8817,
      "생길": 8818,
      "##란다": 8819,
      "죄송": 8820,
      "음식": 8821,
      "##ㅠㅠ": 8822,
      "##부채": 8823,
      "정기": 8824,
      "어렵게": 8825,
      "양산": 8826,
      "계속해서": 8827,
      "총살": 8828,
      "국내에서": 8829,
      "##은폐": 8830,
      "대폭": 8831,
      "소리를": 8832,
      "악마": 8833,
      "가상": 8834,
      "금전": 8835,
      "현재는": 8836,
      "##함에": 8837,
      "거래를": 8838,
      "풀어": 8839,
      "승진": 8840,
      "##된다는": 8841,
      "##개의": 8842,
      "맞춰": 8843,
      "##것이고": 8844,
      "안전하게": 8845,
      "##처구니": 8846,
      "청원이": 8847,
      "만족": 8848,
      "##뿐입니다": 8849,
      "해마다": 8850,
      "##하였다": 8851,
      "같아": 8852,
      "##임대": 8853,
      "감당": 8854,
      "현재까지": 8855,
      "사건과": 8856,
      "##토록": 8857,
      "하나요": 8858,
      "내세": 8859,
      "법안을": 8860,
      "발급": 8861,
      "##연한": 8862,
      "환경을": 8863,
      "5월": 8864,
      "##해가": 8865,
      "다스": 8866,
      "말아": 8867,
      "학생입니다": 8868,
      "경산시청": 8869,
      "대법원": 8870,
      "게이": 8871,
      "##24": 8872,
      "주어야": 8873,
      "##보내": 8874,
      "오로": 8875,
      "하였고": 8876,
      "북한은": 8877,
      "목숨을": 8878,
      "맹": 8879,
      "잇": 8880,
      "아파": 8881,
      "대단": 8882,
      "##나오": 8883,
      "빙": 8884,
      "페이": 8885,
      "바보": 8886,
      "##부탁드립니다": 8887,
      "읽어주셔서": 8888,
      "노후": 8889,
      "##량이": 8890,
      "##초에": 8891,
      "자체를": 8892,
      "불법만행으로": 8893,
      "드러나": 8894,
      "쏟": 8895,
      "아르바이트": 8896,
      "##첩": 8897,
      "##지못": 8898,
      "##럭": 8899,
      "##체를": 8900,
      "##ᆻ어요": 8901,
      "어처구니": 8902,
      "##주민": 8903,
      "없다면": 8904,
      "일어날": 8905,
      "균": 8906,
      "버티": 8907,
      "##인들은": 8908,
      "아무도": 8909,
      "##안은": 8910,
      "##점에서": 8911,
      "미사일": 8912,
      "##고있습니다": 8913,
      "##서비스": 8914,
      "생각은": 8915,
      "세금이": 8916,
      "가치가": 8917,
      "##그룹": 8918,
      "전문조직에": 8919,
      "##거라고": 8920,
      "##무고": 8921,
      "계약직": 8922,
      "해주십시오": 8923,
      "##담을": 8924,
      "##적용": 8925,
      "제주": 8926,
      "너는": 8927,
      "건전": 8928,
      "플": 8929,
      "##23": 8930,
      "대통령을": 8931,
      "학생이": 8932,
      "보호를": 8933,
      "횡포": 8934,
      ".”": 8935,
      "##컵": 8936,
      "그들만의": 8937,
      "나이를": 8938,
      "없음": 8939,
      "##외상센터": 8940,
      "확실히": 8941,
      "만들어야": 8942,
      "현실에": 8943,
      "##사람들이": 8944,
      "공익을": 8945,
      "때까지": 8946,
      "단축": 8947,
      "해결책": 8948,
      "어쩔수": 8949,
      "층": 8950,
      "##하다면": 8951,
      "##해줄": 8952,
      "##분의": 8953,
      "발생하는": 8954,
      "관계자": 8955,
      "경상북도가": 8956,
      "가면": 8957,
      "경비": 8958,
      "신혼": 8959,
      "미래에": 8960,
      "말쓰": 8961,
      "1명": 8962,
      "##ᆻ는지": 8963,
      "보복": 8964,
      "경영": 8965,
      "생리": 8966,
      "미혼": 8967,
      "남한": 8968,
      "침묵": 8969,
      "있으므로": 8970,
      "가혹하고": 8971,
      "##되는데": 8972,
      "입원": 8973,
      "담배를": 8974,
      "십": 8975,
      "실명": 8976,
      "김영": 8977,
      "출동": 8978,
      "영상": 8979,
      "참가": 8980,
      "##하였으나": 8981,
      "일베": 8982,
      "문제에": 8983,
      "파면": 8984,
      "정책에": 8985,
      "이용하여": 8986,
      "위험한": 8987,
      "##lo": 8988,
      "하더군요": 8989,
      "바쁘": 8990,
      "##치게": 8991,
      "동생": 8992,
      "항의": 8993,
      "곳에서": 8994,
      "오는": 8995,
      "유린": 8996,
      "정말로": 8997,
      "좋지": 8998,
      "환자": 8999,
      "대출을": 9000,
      "비용이": 9001,
      "##리아": 9002,
      "것인데": 9003,
      "##질을": 9004,
      "맞다고": 9005,
      "이의": 9006,
      "부정부": 9007,
      "심신": 9008,
      "정권이": 9009,
      "참고로": 9010,
      "##턴": 9011,
      "이라": 9012,
      "##기능": 9013,
      "보증": 9014,
      "한명": 9015,
      "구청": 9016,
      "받아들": 9017,
      "막아": 9018,
      "않아도": 9019,
      "축소은폐": 9020,
      "##계에": 9021,
      "유럽": 9022,
      "##등급": 9023,
      "또다시": 9024,
      "국립": 9025,
      "##조작": 9026,
      "유통": 9027,
      "정확히": 9028,
      "전과": 9029,
      "##행하는": 9030,
      "즉각": 9031,
      "##ᆷ과": 9032,
      "일도": 9033,
      "##조직을": 9034,
      "적어": 9035,
      "자원": 9036,
      "유기": 9037,
      "30년": 9038,
      "향후": 9039,
      "##ᆸ을": 9040,
      "저녁": 9041,
      "아니라는": 9042,
      "오른": 9043,
      "##달라는": 9044,
      "싶어": 9045,
      "꽃": 9046,
      "##앞에": 9047,
      "아픈": 9048,
      "동참": 9049,
      "출신": 9050,
      "드리": 9051,
      "들어와": 9052,
      "하루빨리": 9053,
      "대로": 9054,
      "북핵": 9055,
      "##부와": 9056,
      "민사": 9057,
      "질병": 9058,
      "대중교통": 9059,
      "굴": 9060,
      "##25": 9061,
      "없으며": 9062,
      "남의": 9063,
      "지원이": 9064,
      "술을": 9065,
      "나서서": 9066,
      "영세": 9067,
      "현실적으로": 9068,
      "거래소를": 9069,
      "##드리겠습니다": 9070,
      "못하도록": 9071,
      "불가능한": 9072,
      "아들": 9073,
      "있지도": 9074,
      "원칙이": 9075,
      "##서로": 9076,
      "현금": 9077,
      "못했습니다": 9078,
      "진심으로": 9079,
      "들은": 9080,
      "##해야하는": 9081,
      "포함한": 9082,
      "##둑": 9083,
      "무책임": 9084,
      "맞벌이": 9085,
      "##억을": 9086,
      "소위": 9087,
      "때문이다": 9088,
      "##활동을": 9089,
      "군대를": 9090,
      "##짝": 9091,
      "싸우": 9092,
      "##실로": 9093,
      "임시": 9094,
      "하였으나": 9095,
      "종목": 9096,
      "채권": 9097,
      "있어요": 9098,
      "자가": 9099,
      "청원에": 9100,
      "아닌데": 9101,
      "##만원이": 9102,
      "##되었고": 9103,
      "71": 9104,
      "지내": 9105,
      "일관": 9106,
      "소망": 9107,
      "하는것이": 9108,
      "##기때문에": 9109,
      "일들이": 9110,
      "중학생": 9111,
      "##단의": 9112,
      "매출": 9113,
      "취급": 9114,
      "##ᆻ다가": 9115,
      "##콜": 9116,
      "##말을": 9117,
      "매수": 9118,
      "후손": 9119,
      "더욱더": 9120,
      "##__": 9121,
      "했으나": 9122,
      "하여야": 9123,
      "해당하는": 9124,
      "챙겨": 9125,
      "합법화": 9126,
      "홈페이지": 9127,
      "##해져": 9128,
      "##낙": 9129,
      "##였고": 9130,
      "정의를": 9131,
      "현역": 9132,
      "##봐도": 9133,
      "나와서": 9134,
      "금감원": 9135,
      "이대로": 9136,
      "##던가": 9137,
      "돈은": 9138,
      "나오지": 9139,
      "독재": 9140,
      "예산을": 9141,
      "객관": 9142,
      "##17": 9143,
      "##함으로써": 9144,
      "긴급": 9145,
      "집중적인": 9146,
      "4월": 9147,
      "짐": 9148,
      "수신": 9149,
      "되어서": 9150,
      "생각도": 9151,
      "가난": 9152,
      "##상도": 9153,
      "자금": 9154,
      "##말이": 9155,
      ".>": 9156,
      "##아래": 9157,
      "탐": 9158,
      "충격": 9159,
      "안된다": 9160,
      "##니요": 9161,
      "##인도": 9162,
      "보상을": 9163,
      "의하여": 9164,
      "동계": 9165,
      "대책이": 9166,
      "저지르고": 9167,
      "##합시다": 9168,
      "##시절": 9169,
      "제작": 9170,
      "##궁": 9171,
      "##집에": 9172,
      "알고있습니다": 9173,
      "##ᆻ는": 9174,
      "##얼": 9175,
      "시정": 9176,
      "생각하면": 9177,
      "##식의": 9178,
      "야간": 9179,
      "명의": 9180,
      "1번": 9181,
      "##99": 9182,
      "##ch": 9183,
      "공소시": 9184,
      "적절한": 9185,
      "입시": 9186,
      "##것같습니다": 9187,
      "횟": 9188,
      "친환경": 9189,
      "##정책을": 9190,
      "##자면": 9191,
      "결정을": 9192,
      "수수료": 9193,
      "##서와": 9194,
      "갑니다": 9195,
      "가중": 9196,
      "피의": 9197,
      "재발": 9198,
      "감옥": 9199,
      "##라고요": 9200,
      "채무": 9201,
      "공소시효": 9202,
      "##웨": 9203,
      "하려고": 9204,
      "마을": 9205,
      "##재산": 9206,
      "##분야": 9207,
      "##학과": 9208,
      "불법감": 9209,
      "##놓은": 9210,
      "쇼": 9211,
      "하신": 9212,
      "##자원": 9213,
      "##조를": 9214,
      "핑": 9215,
      "할머니": 9216,
      "경찰에": 9217,
      "문제인": 9218,
      "시행과": 9219,
      "꿈꾸": 9220,
      "08": 9221,
      "##떨": 9222,
      "이들은": 9223,
      "전형": 9224,
      "만드": 9225,
      "버려": 9226,
      "완화": 9227,
      "행복한": 9228,
      "옥": 9229,
      "하도록": 9230,
      "숫": 9231,
      "고령": 9232,
      "후보": 9233,
      "##대중": 9234,
      "보이는": 9235,
      "##처분": 9236,
      "아이는": 9237,
      "않는다는": 9238,
      "youtu": 9239,
      "##금지를": 9240,
      "신중": 9241,
      "남겨": 9242,
      "채굴": 9243,
      "##담당": 9244,
      "방향으로": 9245,
      "정부포상업무": 9246,
      "거대한": 9247,
      "출퇴근": 9248,
      "탁": 9249,
      "15만명": 9250,
      "##벨": 9251,
      "##되게": 9252,
      "주로": 9253,
      "한미": 9254,
      "##지않습니다": 9255,
      "꼼": 9256,
      "썩은": 9257,
      "박상기": 9258,
      "부실": 9259,
      "앞에서": 9260,
      "헬": 9261,
      "페미니": 9262,
      "##ng": 9263,
      "##니까요": 9264,
      "지구": 9265,
      "사용할": 9266,
      "최고의": 9267,
      "##것같": 9268,
      "영원": 9269,
      "자유를": 9270,
      "기술을": 9271,
      "악질": 9272,
      "애들": 9273,
      "2003": 9274,
      "!!!!": 9275,
      "##ᆰ은": 9276,
      "##조에": 9277,
      "##실은": 9278,
      "죽음": 9279,
      "##짜리": 9280,
      "있음을": 9281,
      "국세": 9282,
      "아님": 9283,
      "오르": 9284,
      "출입": 9285,
      "해야할": 9286,
      "열악한": 9287,
      "어디서": 9288,
      "챙기": 9289,
      "##해라": 9290,
      "바탕": 9291,
      "위와": 9292,
      "여유": 9293,
      "##관의": 9294,
      "재개발": 9295,
      "학생들": 9296,
      "##eb": 9297,
      "##인들의": 9298,
      "##여야": 9299,
      "다수의": 9300,
      "청약": 9301,
      "근무를": 9302,
      "판단을": 9303,
      "##등으로": 9304,
      "폐지하고": 9305,
      "요구하는": 9306,
      "본인은": 9307,
      "##14": 9308,
      "하네요": 9309,
      "차를": 9310,
      "경찰조직을": 9311,
      "면제": 9312,
      "가짜": 9313,
      "나경": 9314,
      "기여": 9315,
      "생각하지": 9316,
      "화물": 9317,
      "##위반": 9318,
      "바로잡": 9319,
      "범죄전문조직": 9320,
      "어두": 9321,
      "##거운": 9322,
      "##수급": 9323,
      "전직": 9324,
      "이렇": 9325,
      "나옵니다": 9326,
      "도시공": 9327,
      "얘기를": 9328,
      "시장을": 9329,
      "##대해": 9330,
      "모욕": 9331,
      "##년생": 9332,
      "연계": 9333,
      "방법은": 9334,
      "동성애": 9335,
      "이땅": 9336,
      "대답": 9337,
      "기울": 9338,
      "예정": 9339,
      "##지않은": 9340,
      "아직까지": 9341,
      "보안": 9342,
      "수고": 9343,
      "1회": 9344,
      "##60": 9345,
      "##중이": 9346,
      "분들도": 9347,
      "매도": 9348,
      "##릴수": 9349,
      "저렴": 9350,
      "다자녀": 9351,
      "##질이": 9352,
      "##씨가": 9353,
      "##습을": 9354,
      "있었고": 9355,
      "가만히": 9356,
      "끔찍한": 9357,
      "육아휴직": 9358,
      "기재": 9359,
      "내야": 9360,
      "분리": 9361,
      "##사람은": 9362,
      "귀하": 9363,
      "오랜": 9364,
      "왜냐하면": 9365,
      "가질": 9366,
      "국공": 9367,
      "##화로": 9368,
      "##권은": 9369,
      "나오고": 9370,
      "##35": 9371,
      "낳고": 9372,
      "##국인": 9373,
      "자라": 9374,
      "안고": 9375,
      "##증이": 9376,
      "형성": 9377,
      "부모가": 9378,
      "철회": 9379,
      "##으므로": 9380,
      "정시": 9381,
      "##있도록": 9382,
      "들어오": 9383,
      "들어가는": 9384,
      "낭비하며": 9385,
      "##가로": 9386,
      "외상센터": 9387,
      "위해서라도": 9388,
      "잡고": 9389,
      "다르게": 9390,
      "##사에서": 9391,
      "##위는": 9392,
      "말한": 9393,
      "바라며": 9394,
      "에너지": 9395,
      "막는": 9396,
      "##흘": 9397,
      "##가에": 9398,
      "오로지": 9399,
      "##논": 9400,
      "##분들의": 9401,
      "설계": 9402,
      "월드": 9403,
      "봐야": 9404,
      "##27": 9405,
      "##하겠다": 9406,
      "이유만으로": 9407,
      "폭행과": 9408,
      "풀려": 9409,
      "주장하는": 9410,
      "지옥": 9411,
      "주실": 9412,
      "없네요": 9413,
      "많다고": 9414,
      "##집을": 9415,
      "학생들을": 9416,
      "키울": 9417,
      "세계에서": 9418,
      "부분을": 9419,
      "보게": 9420,
      "무려": 9421,
      "국가에": 9422,
      "학생들에게": 9423,
      "우리나라에서": 9424,
      "의무적으로": 9425,
      "떠나": 9426,
      "첨부": 9427,
      "##해지는": 9428,
      "##나이": 9429,
      "##번을": 9430,
      "정부에서는": 9431,
      "발행": 9432,
      "##정부가": 9433,
      "현실은": 9434,
      "대부분이": 9435,
      "1000": 9436,
      "##거든": 9437,
      "동의를": 9438,
      "월세": 9439,
      "친일": 9440,
      "손해를": 9441,
      "물어보": 9442,
      "##어린이": 9443,
      "안에서": 9444,
      "획": 9445,
      "시간에": 9446,
      "##쓰고": 9447,
      "프로그램": 9448,
      "##as": 9449,
      "##의무": 9450,
      "##장도": 9451,
      "처해야": 9452,
      "##중개": 9453,
      "##량을": 9454,
      "사용해": 9455,
      "이명박출국": 9456,
      "##돈을": 9457,
      "##자동": 9458,
      "국민입니다": 9459,
      "중간": 9460,
      "들어서": 9461,
      "김성": 9462,
      "독일": 9463,
      "마음대로": 9464,
      "궁금합니다": 9465,
      "기도": 9466,
      "하는거": 9467,
      "장관님": 9468,
      "충분한": 9469,
      "스마트폰": 9470,
      "##로만": 9471,
      "##해준": 9472,
      "긍": 9473,
      "##자마자": 9474,
      "대피": 9475,
      "감히": 9476,
      "서민들은": 9477,
      "소년법을": 9478,
      "##하죠": 9479,
      "하락": 9480,
      "##연구": 9481,
      "최순": 9482,
      "상태입니다": 9483,
      "줘": 9484,
      "서버": 9485,
      "##해지": 9486,
      "##방을": 9487,
      "##주시면": 9488,
      "군복무": 9489,
      "##너무": 9490,
      "짓바": 9491,
      "기획하여": 9492,
      "사고를": 9493,
      "올라가": 9494,
      "무섭습니다": 9495,
      "예비군": 9496,
      "줘야": 9497,
      "##57": 9498,
      "일에": 9499,
      "권리가": 9500,
      "고시일로": 9501,
      "지진이": 9502,
      "안타까운": 9503,
      "비롯": 9504,
      "##요청": 9505,
      "사안": 9506,
      "지식": 9507,
      "##국에": 9508,
      "##하고있습니다": 9509,
      "부양": 9510,
      "##름이": 9511,
      "한국에": 9512,
      "김대중": 9513,
      "정책으로": 9514,
      "제대로된": 9515,
      "생계": 9516,
      "전역": 9517,
      "언제나": 9518,
      "국공립": 9519,
      "아까": 9520,
      "지경": 9521,
      "해고": 9522,
      "##것에": 9523,
      "##학적": 9524,
      "##테러": 9525,
      "월급을": 9526,
      "010": 9527,
      "##ᆯ로": 9528,
      "##하려면": 9529,
      "##시면": 9530,
      "어이": 9531,
      "강하게": 9532,
      "##효과": 9533,
      "갖추": 9534,
      "한달에": 9535,
      "##했지": 9536,
      "##질환": 9537,
      "너무도": 9538,
      "명절": 9539,
      "수도권": 9540,
      "##ᆺ하게": 9541,
      "강릉": 9542,
      "회사가": 9543,
      "기존의": 9544,
      "끌어": 9545,
      "강원랜드": 9546,
      "##aus": 9547,
      "쏟아": 9548,
      "국민제안": 9549,
      "##비도": 9550,
      "##분은": 9551,
      "구축": 9552,
      "건가요": 9553,
      "빨아": 9554,
      "나은": 9555,
      "고양이": 9556,
      "아니지만": 9557,
      "##점은": 9558,
      "사용하지": 9559,
      "토론": 9560,
      "##수에": 9561,
      "않기": 9562,
      "말만": 9563,
      "민원에": 9564,
      "인권이": 9565,
      "일본의": 9566,
      "이중": 9567,
      "##비에": 9568,
      "개미": 9569,
      "약자인": 9570,
      "좋습니다": 9571,
      "파견": 9572,
      "받아서": 9573,
      "걱정이": 9574,
      "부정부패": 9575,
      "##잇": 9576,
      "이걸": 9577,
      "고의": 9578,
      "에게": 9579,
      "일본은": 9580,
      "투기꾼": 9581,
      "##ing": 9582,
      "##스를": 9583,
      "##과목": 9584,
      "자리를": 9585,
      "##각지": 9586,
      "##전환": 9587,
      "##선이": 9588,
      "금액을": 9589,
      "어긋": 9590,
      "##저축은행": 9591,
      "나면": 9592,
      "해커": 9593,
      "##회가": 9594,
      "온라인": 9595,
      "##가지고": 9596,
      "대상이": 9597,
      "같은데": 9598,
      "만들어진": 9599,
      "##프트": 9600,
      "한번도": 9601,
      "사이버": 9602,
      "울산": 9603,
      "초기": 9604,
      "한가지": 9605,
      "##안되는": 9606,
      "글이": 9607,
      "##팀을": 9608,
      "부담을": 9609,
      "공매도": 9610,
      "->": 9611,
      "때에는": 9612,
      "것입니까": 9613,
      "달려": 9614,
      "##헤": 9615,
      "##큰": 9616,
      "##사이": 9617,
      "중개": 9618,
      "당해": 9619,
      "아닌지": 9620,
      "넘겨": 9621,
      "합당한": 9622,
      "가계부채": 9623,
      "던": 9624,
      "주인": 9625,
      "셋째": 9626,
      "반대하는": 9627,
      "싫어": 9628,
      "반려견": 9629,
      "하겠습니다": 9630,
      "있음에도": 9631,
      "조심": 9632,
      "과세": 9633,
      "말할": 9634,
      "포털": 9635,
      "##예산": 9636,
      "나이에": 9637,
      "제외한": 9638,
      "근본적인": 9639,
      "##통신": 9640,
      "##명은": 9641,
      "문을": 9642,
      "##릇": 9643,
      "교도": 9644,
      "부분은": 9645,
      "인간의": 9646,
      "회사에서": 9647,
      "수천": 9648,
      "맨": 9649,
      "손을": 9650,
      "##사람들": 9651,
      "늘어나고": 9652,
      "##는가": 9653,
      "어이가": 9654,
      "주소": 9655,
      "##수한": 9656,
      "##증으로": 9657,
      "전원": 9658,
      "##웅": 9659,
      "받으며": 9660,
      "선동": 9661,
      "##연맹": 9662,
      "##순환": 9663,
      "요즘은": 9664,
      "느끼고": 9665,
      "정하는": 9666,
      "윗": 9667,
      "사건의": 9668,
      "각각": 9669,
      "확실한": 9670,
      "완벽하게": 9671,
      "가운데": 9672,
      "지출": 9673,
      "인공": 9674,
      "사용하고": 9675,
      "태어난": 9676,
      "이해할": 9677,
      "육체": 9678,
      "##아이를": 9679,
      "겪고": 9680,
      "조합원": 9681,
      "##쇠": 9682,
      "않으며": 9683,
      "인도": 9684,
      "##조사를": 9685,
      "##따라": 9686,
      "##나면": 9687,
      "신천": 9688,
      "점검": 9689,
      "없이는": 9690,
      "시켜주세요": 9691,
      "악용하는": 9692,
      "##nd": 9693,
      "##하우스": 9694,
      "모아": 9695,
      "누구도": 9696,
      "차량을": 9697,
      "최저시급": 9698,
      "##뇌": 9699,
      "##로도": 9700,
      "##김": 9701,
      "공휴": 9702,
      "신상": 9703,
      "힘없는": 9704,
      "모르겠지만": 9705,
      "##인에": 9706,
      "제4": 9707,
      "상처를": 9708,
      "6년": 9709,
      "##ᅪᆯ": 9710,
      "하라고": 9711,
      "다주택": 9712,
      "상품": 9713,
      "몰아": 9714,
      "기업의": 9715,
      "##값을": 9716,
      "발전을": 9717,
      "기득권": 9718,
      "ㅠㅠ": 9719,
      "##화된": 9720,
      "미안": 9721,
      "막아야": 9722,
      "투자한": 9723,
      "날까지": 9724,
      "해결해": 9725,
      "결과가": 9726,
      "일주일": 9727,
      "##ᆷ새": 9728,
      "주셔서": 9729,
      "할까요": 9730,
      "구제": 9731,
      "한국에서": 9732,
      "초래": 9733,
      "쓰게": 9734,
      "눈에": 9735,
      "태양": 9736,
      "##끝": 9737,
      "문재인정부가": 9738,
      "##민주주의": 9739,
      "##놔": 9740,
      "이로": 9741,
      "##서야": 9742,
      "##기구": 9743,
      "않다고": 9744,
      "분류": 9745,
      "펴": 9746,
      "##사들이": 9747,
      "##년대": 9748,
      "##일1": 9749,
      "##문이": 9750,
      "의문이": 9751,
      "뿌리": 9752,
      "mediaus": 9753,
      "##뉴": 9754,
      "##깨": 9755,
      "##릭": 9756,
      "##있다고": 9757,
      "달라고": 9758,
      "부분에": 9759,
      "기준이": 9760,
      "병원에": 9761,
      "또다른": 9762,
      "나영": 9763,
      "개혁이": 9764,
      "엄마입니다": 9765,
      "연락이": 9766,
      "to": 9767,
      "##ᆷ입니다": 9768,
      "##자들도": 9769,
      "저같은": 9770,
      "##마련": 9771,
      "연말": 9772,
      "하였": 9773,
      "개선을": 9774,
      "오늘도": 9775,
      "공산주의": 9776,
      "하실": 9777,
      "##인력": 9778,
      "유명": 9779,
      "할지": 9780,
      "해결할": 9781,
      "##지않게": 9782,
      "나오면": 9783,
      "##잔": 9784,
      "이글을": 9785,
      "아내": 9786,
      "##으로만": 9787,
      "보다는": 9788,
      "##재를": 9789,
      "##점에": 9790,
      "임산부": 9791,
      "콘": 9792,
      "##빈": 9793,
      "나가는": 9794,
      "식당": 9795,
      "놀라": 9796,
      "##묘": 9797,
      "사면": 9798,
      "당하는": 9799,
[...]
